{
  "version": "1.0",
  "truncation": null,
  "padding": null,
  "added_tokens": [
    {
      "id": 0,
      "content": "<pad>",
      "single_word": false,
      "lstrip": false,
      "rstrip": false,
      "normalized": false,
      "special": true
    },
    {
      "id": 1,
      "content": "<unk>",
      "single_word": false,
      "lstrip": false,
      "rstrip": false,
      "normalized": false,
      "special": true
    },
    {
      "id": 2,
      "content": "<bos>",
      "single_word": false,
      "lstrip": false,
      "rstrip": false,
      "normalized": false,
      "special": true
    },
    {
      "id": 3,
      "content": "<eos>",
      "single_word": false,
      "lstrip": false,
      "rstrip": false,
      "normalized": false,
      "special": true
    },
    {
      "id": 4,
      "content": "<mask>",
      "single_word": false,
      "lstrip": false,
      "rstrip": false,
      "normalized": false,
      "special": true
    },
    {
      "id": 5,
      "content": "<|system|>",
      "single_word": false,
      "lstrip": false,
      "rstrip": false,
      "normalized": false,
      "special": true
    },
    {
      "id": 6,
      "content": "<|user|>",
      "single_word": false,
      "lstrip": false,
      "rstrip": false,
      "normalized": false,
      "special": true
    },
    {
      "id": 7,
      "content": "<|assistant|>",
      "single_word": false,
      "lstrip": false,
      "rstrip": false,
      "normalized": false,
      "special": true
    },
    {
      "id": 8,
      "content": "<|end|>",
      "single_word": false,
      "lstrip": false,
      "rstrip": false,
      "normalized": false,
      "special": true
    }
  ],
  "normalizer": null,
  "pre_tokenizer": {
    "type": "ByteLevel",
    "add_prefix_space": false,
    "trim_offsets": true,
    "use_regex": true
  },
  "post_processor": null,
  "decoder": {
    "type": "ByteLevel",
    "add_prefix_space": true,
    "trim_offsets": true,
    "use_regex": true
  },
  "model": {
    "type": "BPE",
    "dropout": null,
    "unk_token": "<unk>",
    "continuing_subword_prefix": null,
    "end_of_word_suffix": null,
    "fuse_unk": false,
    "byte_fallback": false,
    "ignore_merges": false,
    "vocab": {
      "<pad>": 0,
      "<unk>": 1,
      "<bos>": 2,
      "<eos>": 3,
      "<mask>": 4,
      "<|system|>": 5,
      "<|user|>": 6,
      "<|assistant|>": 7,
      "<|end|>": 8,
      "!": 9,
      "\"": 10,
      "#": 11,
      "$": 12,
      "%": 13,
      "&": 14,
      "'": 15,
      "(": 16,
      ")": 17,
      "*": 18,
      "+": 19,
      ",": 20,
      "-": 21,
      ".": 22,
      "/": 23,
      "0": 24,
      "1": 25,
      "2": 26,
      "3": 27,
      "4": 28,
      "5": 29,
      "6": 30,
      "7": 31,
      "8": 32,
      "9": 33,
      ":": 34,
      ";": 35,
      "<": 36,
      "=": 37,
      ">": 38,
      "?": 39,
      "@": 40,
      "A": 41,
      "B": 42,
      "C": 43,
      "D": 44,
      "E": 45,
      "F": 46,
      "G": 47,
      "H": 48,
      "I": 49,
      "J": 50,
      "K": 51,
      "L": 52,
      "M": 53,
      "N": 54,
      "O": 55,
      "P": 56,
      "Q": 57,
      "R": 58,
      "S": 59,
      "T": 60,
      "U": 61,
      "V": 62,
      "W": 63,
      "X": 64,
      "Y": 65,
      "Z": 66,
      "[": 67,
      "\\": 68,
      "]": 69,
      "^": 70,
      "_": 71,
      "`": 72,
      "a": 73,
      "b": 74,
      "c": 75,
      "d": 76,
      "e": 77,
      "f": 78,
      "g": 79,
      "h": 80,
      "i": 81,
      "j": 82,
      "k": 83,
      "l": 84,
      "m": 85,
      "n": 86,
      "o": 87,
      "p": 88,
      "q": 89,
      "r": 90,
      "s": 91,
      "t": 92,
      "u": 93,
      "v": 94,
      "w": 95,
      "x": 96,
      "y": 97,
      "z": 98,
      "{": 99,
      "|": 100,
      "}": 101,
      "~": 102,
      "¡": 103,
      "¢": 104,
      "£": 105,
      "¤": 106,
      "¥": 107,
      "¦": 108,
      "§": 109,
      "¨": 110,
      "©": 111,
      "ª": 112,
      "«": 113,
      "¬": 114,
      "®": 115,
      "¯": 116,
      "°": 117,
      "±": 118,
      "²": 119,
      "³": 120,
      "´": 121,
      "µ": 122,
      "¶": 123,
      "·": 124,
      "¸": 125,
      "¹": 126,
      "º": 127,
      "»": 128,
      "¼": 129,
      "½": 130,
      "¾": 131,
      "¿": 132,
      "À": 133,
      "Á": 134,
      "Â": 135,
      "Ã": 136,
      "Ä": 137,
      "Å": 138,
      "Æ": 139,
      "Ç": 140,
      "È": 141,
      "É": 142,
      "Ê": 143,
      "Ë": 144,
      "Ì": 145,
      "Í": 146,
      "Î": 147,
      "Ï": 148,
      "Ð": 149,
      "Ñ": 150,
      "Ò": 151,
      "Ó": 152,
      "Ô": 153,
      "Õ": 154,
      "Ö": 155,
      "×": 156,
      "Ø": 157,
      "Ù": 158,
      "Ú": 159,
      "Û": 160,
      "Ü": 161,
      "Ý": 162,
      "Þ": 163,
      "ß": 164,
      "à": 165,
      "á": 166,
      "â": 167,
      "ã": 168,
      "ä": 169,
      "å": 170,
      "æ": 171,
      "ç": 172,
      "è": 173,
      "é": 174,
      "ê": 175,
      "ë": 176,
      "ì": 177,
      "í": 178,
      "î": 179,
      "ï": 180,
      "ð": 181,
      "ñ": 182,
      "ò": 183,
      "ó": 184,
      "ô": 185,
      "õ": 186,
      "ö": 187,
      "÷": 188,
      "ø": 189,
      "ù": 190,
      "ú": 191,
      "û": 192,
      "ü": 193,
      "ý": 194,
      "þ": 195,
      "ÿ": 196,
      "Ā": 197,
      "ā": 198,
      "Ă": 199,
      "ă": 200,
      "Ą": 201,
      "ą": 202,
      "Ć": 203,
      "ć": 204,
      "Ĉ": 205,
      "ĉ": 206,
      "Ċ": 207,
      "ċ": 208,
      "Č": 209,
      "č": 210,
      "Ď": 211,
      "ď": 212,
      "Đ": 213,
      "đ": 214,
      "Ē": 215,
      "ē": 216,
      "Ĕ": 217,
      "ĕ": 218,
      "Ė": 219,
      "ė": 220,
      "Ę": 221,
      "ę": 222,
      "Ě": 223,
      "ě": 224,
      "Ĝ": 225,
      "ĝ": 226,
      "Ğ": 227,
      "ğ": 228,
      "Ġ": 229,
      "ġ": 230,
      "Ģ": 231,
      "ģ": 232,
      "Ĥ": 233,
      "ĥ": 234,
      "Ħ": 235,
      "ħ": 236,
      "Ĩ": 237,
      "ĩ": 238,
      "Ī": 239,
      "ī": 240,
      "Ĭ": 241,
      "ĭ": 242,
      "Į": 243,
      "į": 244,
      "İ": 245,
      "ı": 246,
      "Ĳ": 247,
      "ĳ": 248,
      "Ĵ": 249,
      "ĵ": 250,
      "Ķ": 251,
      "ķ": 252,
      "ĸ": 253,
      "Ĺ": 254,
      "ĺ": 255,
      "Ļ": 256,
      "ļ": 257,
      "Ľ": 258,
      "ľ": 259,
      "Ŀ": 260,
      "ŀ": 261,
      "Ł": 262,
      "ł": 263,
      "Ń": 264,
      "Ġt": 265,
      "Ġa": 266,
      "he": 267,
      "in": 268,
      "re": 269,
      "Ġthe": 270,
      "Ġo": 271,
      "er": 272,
      "on": 273,
      "at": 274,
      "Ġs": 275,
      "en": 276,
      "Ġc": 277,
      "Ġw": 278,
      "es": 279,
      "is": 280,
      "nd": 281,
      "it": 282,
      "or": 283,
      "Ġp": 284,
      "al": 285,
      "ed": 286,
      "Ġof": 287,
      "Ġb": 288,
      "Ġf": 289,
      "an": 290,
      "ing": 291,
      "Ġin": 292,
      "ar": 293,
      "ou": 294,
      "Ġm": 295,
      "Ġand": 296,
      "ic": 297,
      "Ġto": 298,
      "Ġd": 299,
      "ion": 300,
      "le": 301,
      "ro": 302,
      "as": 303,
      "Ġh": 304,
      "ent": 305,
      "Ġth": 306,
      "ct": 307,
      "Ġe": 308,
      "il": 309,
      "Ġre": 310,
      "ĠT": 311,
      "om": 312,
      "Ġl": 313,
      "ve": 314,
      "Ġn": 315,
      "st": 316,
      "ly": 317,
      "Ġbe": 318,
      "Ġis": 319,
      "se": 320,
      "ĠA": 321,
      "ol": 322,
      "âĢ": 323,
      "Ġg": 324,
      "ation": 325,
      "im": 326,
      "id": 327,
      "et": 328,
      "ĠS": 329,
      "ut": 330,
      "ce": 331,
      "ra": 332,
      "ot": 333,
      "ĠI": 334,
      "ch": 335,
      "ur": 336,
      "ow": 337,
      "Ġfor": 338,
      "ĠC": 339,
      "ig": 340,
      "Ġon": 341,
      "Ġu": 342,
      "Ġthat": 343,
      "ver": 344,
      "Ġst": 345,
      "ĠThe": 346,
      "ir": 347,
      "Ġy": 348,
      "ul": 349,
      "am": 350,
      "ay": 351,
      "Ġas": 352,
      "el": 353,
      "ith": 354,
      "ad": 355,
      "Ġpro": 356,
      "her": 357,
      "ĠM": 358,
      "Ġcon": 359,
      "Ġare": 360,
      "Ġan": 361,
      "Ġwith": 362,
      "Ġwh": 363,
      "Ġ1": 364,
      "ĠP": 365,
      "Ġor": 366,
      "if": 367,
      "Ġit": 368,
      "ter": 369,
      "Ġal": 370,
      "Ġ(": 371,
      "od": 372,
      "ĠB": 373,
      "Ġyou": 374,
      "ment": 375,
      "ge": 376,
      "th": 377,
      "ist": 378,
      "ate": 379,
      "op": 380,
      "ers": 381,
      "ĠW": 382,
      "ĠH": 383,
      "Ġde": 384,
      "ill": 385,
      "ies": 386,
      "Ġhe": 387,
      "ab": 388,
      "Ġex": 389,
      "Ġsu": 390,
      "ess": 391,
      "ere": 392,
      "ore": 393,
      "ect": 394,
      "us": 395,
      "Ġcom": 396,
      "est": 397,
      "ity": 398,
      "ĠD": 399,
      "ac": 400,
      "res": 401,
      "rom": 402,
      "Ġha": 403,
      "Ġby": 404,
      "ld": 405,
      "um": 406,
      "ive": 407,
      "Ġv": 408,
      "ĠF": 409,
      "em": 410,
      "os": 411,
      "ĠE": 412,
      "ĠR": 413,
      "qu": 414,
      "ke": 415,
      "ant": 416,
      "nt": 417,
      "Ġat": 418,
      "ain": 419,
      "ri": 420,
      "Ġwas": 421,
      "âĢĻ": 422,
      "pp": 423,
      "Ġ-": 424,
      "igh": 425,
      "ud": 426,
      "Ġfrom": 427,
      "ĠN": 428,
      "and": 429,
      "oc": 430,
      "Ġ2": 431,
      "Ġch": 432,
      "Ġne": 433,
      "ort": 434,
      "iv": 435,
      "Ġcan": 436,
      "Ġse": 437,
      "ĠG": 438,
      "Ġr": 439,
      "ĠL": 440,
      "ure": 441,
      "ĠâĢ": 442,
      "un": 443,
      "Ġnot": 444,
      "art": 445,
      "ical": 446,
      "Ġle": 447,
      "ial": 448,
      "Ġhave": 449,
      "og": 450,
      "Ġsh": 451,
      "Ġen": 452,
      "00": 453,
      "Ġsp": 454,
      "ĠO": 455,
      "Ġthis": 456,
      "ĠIn": 457,
      "ich": 458,
      "ight": 459,
      "pt": 460,
      "Ġab": 461,
      "all": 462,
      "rou": 463,
      "ould": 464,
      "ther": 465,
      "Ġwor": 466,
      "ost": 467,
      "Ġwe": 468,
      "our": 469,
      "ions": 470,
      "gh": 471,
      "ome": 472,
      "ated": 473,
      "ine": 474,
      "du": 475,
      "out": 476,
      "Ġim": 477,
      "ard": 478,
      "per": 479,
      "ell": 480,
      "Ġus": 481,
      "Ġpl": 482,
      "ag": 483,
      "ĠJ": 484,
      "ĠU": 485,
      "Ġtheir": 486,
      "ear": 487,
      "ff": 488,
      "act": 489,
      "ast": 490,
      "ans": 491,
      "Ġint": 492,
      "pl": 493,
      "age": 494,
      "Ġwhich": 495,
      "ĠTh": 496,
      "ak": 497,
      "ust": 498,
      "ec": 499,
      "Ġk": 500,
      "Ġwhe": 501,
      "ide": 502,
      "are": 503,
      "iz": 504,
      "ous": 505,
      "Ġthey": 506,
      "Ġcont": 507,
      "Ġad": 508,
      "Ġall": 509,
      "ood": 510,
      "ia": 511,
      "ib": 512,
      "cc": 513,
      "Ġdis": 514,
      "ult": 515,
      "Ġinc": 516,
      "end": 517,
      "ew": 518,
      "Ġwill": 519,
      "'s": 520,
      "ru": 521,
      "ap": 522,
      "ong": 523,
      "Ġres": 524,
      "Ġmore": 525,
      "ations": 526,
      "ip": 527,
      "Ġhas": 528,
      "vel": 529,
      "Ġcomp": 530,
      "Ġyour": 531,
      "orm": 532,
      "ater": 533,
      "Ġ\"": 534,
      "ary": 535,
      "Ġdo": 536,
      "so": 537,
      "Ġwere": 538,
      "âĢĿ": 539,
      "Ġcl": 540,
      "ire": 541,
      "ĠâĢľ": 542,
      "Ġbut": 543,
      "Ġman": 544,
      "Ġother": 545,
      "ual": 546,
      "able": 547,
      "ence": 548,
      "Ġ19": 549,
      "ild": 550,
      "ry": 551,
      "Ġper": 552,
      "ks": 553,
      "ind": 554,
      "ep": 555,
      "Ġone": 556,
      "ents": 557,
      "Ġme": 558,
      "ach": 559,
      "ance": 560,
      "ose": 561,
      "ĠSt": 562,
      "Ġte": 563,
      "ass": 564,
      "Ġalso": 565,
      "Ġimp": 566,
      "av": 567,
      "ign": 568,
      "ress": 569,
      "ase": 570,
      "au": 571,
      "ice": 572,
      "ction": 573,
      "reat": 574,
      "ake": 575,
      "Ġar": 576,
      "Ġso": 577,
      "Ġapp": 578,
      "Ġj": 579,
      "ber": 580,
      "Ġhis": 581,
      "Ġout": 582,
      "Ġun": 583,
      "ition": 584,
      "ord": 585,
      "ĠK": 586,
      "Ġpart": 587,
      "ount": 588,
      "ame": 589,
      "ime": 590,
      "Ġpre": 591,
      "ory": 592,
      "ish": 593,
      "very": 594,
      "Ġabout": 595,
      "ace": 596,
      "ok": 597,
      "Ġev": 598,
      "Ġwho": 599,
      "ĠIt": 600,
      "Ġstud": 601,
      ").": 602,
      "ens": 603,
      "one": 604,
      "ack": 605,
      "Ġinf": 606,
      "ĠThis": 607,
      "ub": 608,
      "Ġsy": 609,
      "Ġcomm": 610,
      "Ġsc": 611,
      "ite": 612,
      "ound": 613,
      "ors": 614,
      "ue": 615,
      "ree": 616,
      "ang": 617,
      "Ġpe": 618,
      "ces": 619,
      "Ġthem": 620,
      "ike": 621,
      "low": 622,
      "ĠCh": 623,
      "Ġup": 624,
      "olog": 625,
      "ric": 626,
      "now": 627,
      "Ġthan": 628,
      "Ġmay": 629,
      "Ġyear": 630,
      "ĠV": 631,
      "Ġbec": 632,
      "ie": 633,
      "ile": 634,
      "Ġqu": 635,
      "mer": 636,
      "ates": 637,
      "Ġrec": 638,
      "Ġbeen": 639,
      "Ġsome": 640,
      "ail": 641,
      "Ġ3": 642,
      "ian": 643,
      "Ġits": 644,
      "iff": 645,
      "ays": 646,
      "Ġag": 647,
      "Ġthere": 648,
      "nder": 649,
      "ĠY": 650,
      "ople": 651,
      "Ġwhen": 652,
      "ings": 653,
      "ough": 654,
      "Ġinto": 655,
      "ph": 656,
      "vers": 657,
      "erv": 658,
      "Ġtra": 659,
      "Ġgo": 660,
      "ons": 661,
      "Ġtime": 662,
      "Ġhad": 663,
      "Ġthese": 664,
      "Ġwork": 665,
      "Ġover": 666,
      "rit": 667,
      "ally": 668,
      "ond": 669,
      "ren": 670,
      "Ġro": 671,
      "rough": 672,
      "lud": 673,
      "Ġra": 674,
      "tern": 675,
      "ll": 676,
      "Ġcol": 677,
      "ms": 678,
      "irst": 679,
      "Ġdiff": 680,
      "Ġhow": 681,
      "int": 682,
      "Ġuse": 683,
      "Ġpeople": 684,
      "Ġdes": 685,
      "lic": 686,
      "Ġwould": 687,
      "Ġcons": 688,
      "ause": 689,
      "ove": 690,
      "Ġbet": 691,
      "Ġsa": 692,
      "lect": 693,
      "Ġtw": 694,
      "ject": 695,
      "Ġmost": 696,
      "ific": 697,
      "ments": 698,
      "Ġ20": 699,
      "Ġbl": 700,
      "Ġact": 701,
      "te": 702,
      "red": 703,
      "we": 704,
      "ook": 705,
      "Ġnew": 706,
      "stem": 707,
      "Ġknow": 708,
      "Ġunder": 709,
      "Ġacc": 710,
      "les": 711,
      "Ġlike": 712,
      "row": 713,
      "ys": 714,
      "Ġrep": 715,
      "ious": 716,
      "Ġsuch": 717,
      "ities": 718,
      "velop": 719,
      "ational": 720,
      "hed": 721,
      "Ġgen": 722,
      "Ġtr": 723,
      "alth": 724,
      "Ġrel": 725,
      "ient": 726,
      "ning": 727,
      "ĠUn": 728,
      "Ġif": 729,
      "Ġour": 730,
      "Ġno": 731,
      "Ġany": 732,
      "Ġinclud": 733,
      "ative": 734,
      "ffect": 735,
      "Ġneed": 736,
      "ob": 737,
      "Ġonly": 738,
      "Ġfirst": 739,
      "ular": 740,
      "ple": 741,
      "ool": 742,
      "ced": 743,
      "Ġprov": 744,
      "Ġused": 745,
      "Ġprodu": 746,
      "ĠWh": 747,
      "Ġam": 748,
      "Ġchild": 749,
      "Ġph": 750,
      "Ġoff": 751,
      "cess": 752,
      "),": 753,
      "Ġwhat": 754,
      "Ġmany": 755,
      "yp": 756,
      "Ġind": 757,
      "ating": 758,
      "ĠHe": 759,
      "Ġthrough": 760,
      "rib": 761,
      "Ġspec": 762,
      "fter": 763,
      "Ġreg": 764,
      "Ġdevelop": 765,
      "ov": 766,
      "Ġtwo": 767,
      "ath": 768,
      "Ġpo": 769,
      "Ġ200": 770,
      "oss": 771,
      "uc": 772,
      "Ġexp": 773,
      "ts": 774,
      "Ġsystem": 775,
      "Ġhel": 776,
      "round": 777,
      "iss": 778,
      "Ġac": 779,
      "ĠAs": 780,
      "erm": 781,
      "uring": 782,
      "ics": 783,
      "ied": 784,
      "Ġ4": 785,
      "hen": 786,
      "als": 787,
      "Ġob": 788,
      "ark": 789,
      "ise": 790,
      "Ġem": 791,
      "Ġfe": 792,
      "ink": 793,
      "Ġhelp": 794,
      "rop": 795,
      "ne": 796,
      "oth": 797,
      "old": 798,
      "eth": 799,
      "Ġadd": 800,
      "ful": 801,
      "Ġsur": 802,
      "aw": 803,
      "Ġass": 804,
      "ible": 805,
      "Ġdiffere": 806,
      "Ġdec": 807,
      "Ġpr": 808,
      "ility": 809,
      "Ġatt": 810,
      "ased": 811,
      "iet": 812,
      "arch": 813,
      "Ġyears": 814,
      "ert": 815,
      "Ġwater": 816,
      "ble": 817,
      "Ġsub": 818,
      "ower": 819,
      "cy": 820,
      "ures": 821,
      "ife": 822,
      "Ġ5": 823,
      "ten": 824,
      "ween": 825,
      "Ġco": 826,
      "ram": 827,
      "ange": 828,
      "Ġshould": 829,
      "ade": 830,
      "fore": 831,
      "gan": 832,
      "sel": 833,
      "Ġrem": 834,
      "Ġfl": 835,
      "Ġwell": 836,
      "Ġinv": 837,
      "own": 838,
      "Ġcould": 839,
      "hes": 840,
      "ution": 841,
      "Ġbetween": 842,
      "ng": 843,
      "Ġpres": 844,
      "Ġsupp": 845,
      "Ġwhere": 846,
      "ited": 847,
      "Ġsm": 848,
      "wn": 849,
      "ever": 850,
      "meric": 851,
      "ract": 852,
      "Ġtrans": 853,
      "ily": 854,
      "uch": 855,
      "Ġhigh": 856,
      "xt": 857,
      "ants": 858,
      "ident": 859,
      "its": 860,
      "ered": 861,
      "Ġinter": 862,
      "ick": 863,
      "ural": 864,
      "chool": 865,
      "Ġ18": 866,
      "Ġrese": 867,
      "Ġhealth": 868,
      "Ġear": 869,
      "ology": 870,
      "Ġnum": 871,
      "Ġpol": 872,
      "Ġform": 873,
      "Ġbu": 874,
      "Ġpers": 875,
      "Ġmod": 876,
      "ists": 877,
      "Ġmake": 878,
      "ormation": 879,
      "Ġdisc": 880,
      "chn": 881,
      "ĠIf": 882,
      "Ġinst": 883,
      "ĠAl": 884,
      "ins": 885,
      "ĠâĢĵ": 886,
      "ĠWe": 887,
      "land": 888,
      "Ġfound": 889,
      "Ġher": 890,
      "ft": 891,
      "Ġexam": 892,
      "ĠAn": 893,
      "ĠRe": 894,
      "Ġref": 895,
      "ĠAmeric": 896,
      "Ġget": 897,
      "Ġ201": 898,
      "ivers": 899,
      "ines": 900,
      "ict": 901,
      "Ġlar": 902,
      "ience": 903,
      "ĠFor": 904,
      "Ġimport": 905,
      "Ġcent": 906,
      "Ġafter": 907,
      "ature": 908,
      "Ġvery": 909,
      "gy": 910,
      "ont": 911,
      "Ġcount": 912,
      "Ġthen": 913,
      "ually": 914,
      "cept": 915,
      "Ġlong": 916,
      "urn": 917,
      "ĠHow": 918,
      "Ġbecause": 919,
      "Ġed": 920,
      "ism": 921,
      "Ġsim": 922,
      "Ġdet": 923,
      "ting": 924,
      "oy": 925,
      "Ġhum": 926,
      "Ġjust": 927,
      "Ġexper": 928,
      "vent": 929,
      "Ġworld": 930,
      "Ġeven": 931,
      "ata": 932,
      "Ġsaid": 933,
      "Ġeffect": 934,
      "ĠPro": 935,
      "Ġdifferent": 936,
      "Ġmed": 937,
      "ness": 938,
      "other": 939,
      "Ġcall": 940,
      "Ġgener": 941,
      "Ġcar": 942,
      "ically": 943,
      "Ġpub": 944,
      "Ġincre": 945,
      "Ġprog": 946,
      "Ġway": 947,
      "Ġthose": 948,
      "Ġsee": 949,
      "ollow": 950,
      "ved": 951,
      "aking": 952,
      "..": 953,
      "Ġloc": 954,
      "ĠCom": 955,
      "arm": 956,
      "get": 957,
      "iew": 958,
      "Ġtyp": 959,
      "Ġresp": 960,
      "Ġvar": 961,
      "ases": 962,
      "Ġext": 963,
      "ck": 964,
      "tle": 965,
      "Ġgra": 966,
      "Ġdist": 967,
      "Ġsign": 968,
      "Ġ6": 969,
      "Ġlear": 970,
      "ives": 971,
      "Ġke": 972,
      "Ġeach": 973,
      "ds": 974,
      "Ġpat": 975,
      "Ġart": 976,
      "Ġdef": 977,
      "Ġfact": 978,
      "Ġsec": 979,
      "cent": 980,
      "Ġinformation": 981,
      "vern": 982,
      "iron": 983,
      "cer": 984,
      "Ġresult": 985,
      "roup": 986,
      "Ġbeing": 987,
      "ork": 988,
      "ĠThey": 989,
      "Ġevery": 990,
      "Ġrequ": 991,
      "led": 992,
      "ues": 993,
      "Ġpartic": 994,
      "ef": 995,
      "Ġmuch": 996,
      "Ġca": 997,
      "ruct": 998,
      "Ġcommun": 999,
      "Ġduring": 1000,
      "ward": 1001,
      "ros": 1002,
      "ather": 1003,
      "Ġset": 1004,
      "Ġdep": 1005,
      "Ġmon": 1006,
      "Ġtechn": 1007,
      "io": 1008,
      "Ġprocess": 1009,
      "Ġchildren": 1010,
      "ĠThere": 1011,
      "Ġread": 1012,
      "ages": 1013,
      "Ġmy": 1014,
      "Ġ|": 1015,
      "Ġent": 1016,
      "Ġsame": 1017,
      "Ġfam": 1018,
      "Ġmade": 1019,
      "Ġshe": 1020,
      "imes": 1021,
      "Ġlife": 1022,
      "Ġfollow": 1023,
      "Ġown": 1024,
      "ized": 1025,
      "ĠAr": 1026,
      "Ġlevel": 1027,
      "Ġright": 1028,
      "Ġcre": 1029,
      "Ġaut": 1030,
      "gg": 1031,
      "Ġimportant": 1032,
      "ĠBut": 1033,
      "ted": 1034,
      "orn": 1035,
      "ection": 1036,
      "Ġmin": 1037,
      "Ġstudents": 1038,
      "Ġsoc": 1039,
      "Ġend": 1040,
      "Ġlead": 1041,
      "Ġdoes": 1042,
      "Ġfood": 1043,
      "Ġcur": 1044,
      "Ġstudy": 1045,
      "ody": 1046,
      "Ġfind": 1047,
      "Ġback": 1048,
      "ices": 1049,
      "Ġins": 1050,
      "Ġgrow": 1051,
      "form": 1052,
      "und": 1053,
      "ize": 1054,
      "ĠInd": 1055,
      "ĠNew": 1056,
      "Ġhim": 1057,
      "The": 1058,
      "ars": 1059,
      ".âĢĿ": 1060,
      "Ġav": 1061,
      "onom": 1062,
      "ince": 1063,
      "iversity": 1064,
      "any": 1065,
      "Ġshow": 1066,
      "Ġschool": 1067,
      "Ġsk": 1068,
      "Ġboth": 1069,
      "ale": 1070,
      "hip": 1071,
      "viron": 1072,
      "Ġproble": 1073,
      "Ġgood": 1074,
      "hem": 1075,
      "Ġhist": 1076,
      "Ġpop": 1077,
      "000": 1078,
      "Ġsmall": 1079,
      "ĠSp": 1080,
      "ished": 1081,
      ".\"": 1082,
      "ex": 1083,
      "Ġdata": 1084,
      "Ġperson": 1085,
      "Ġgroup": 1086,
      "Ġbefore": 1087,
      "ined": 1088,
      "Ġagain": 1089,
      "Ġcomple": 1090,
      "iel": 1091,
      "imate": 1092,
      "Ġstate": 1093,
      ".,": 1094,
      "ty": 1095,
      "read": 1096,
      "Ġexpl": 1097,
      "Ġcell": 1098,
      "Ġtest": 1099,
      "ergy": 1100,
      "ran": 1101,
      "Ġbo": 1102,
      "ĠYou": 1103,
      "rol": 1104,
      "ute": 1105,
      "Ġdi": 1106,
      "Ġusing": 1107,
      "Ġstr": 1108,
      "Ġgl": 1109,
      "Ġprot": 1110,
      "nce": 1111,
      "up": 1112,
      "ven": 1113,
      "irect": 1114,
      "Ġ10": 1115,
      "ivid": 1116,
      "||": 1117,
      "Ġnow": 1118,
      "ock": 1119,
      "Ġ7": 1120,
      "19": 1121,
      "Ġocc": 1122,
      "ially": 1123,
      "ving": 1124,
      "ĠSc": 1125,
      "Ġmain": 1126,
      "ality": 1127,
      "Ġsol": 1128,
      "ix": 1129,
      "ury": 1130,
      "Ġlit": 1131,
      "Ġmem": 1132,
      "Ġdise": 1133,
      "Ġwhile": 1134,
      "Ġposs": 1135,
      "Ġnumber": 1136,
      "ah": 1137,
      "Ġserv": 1138,
      "ax": 1139,
      "oh": 1140,
      "Ġless": 1141,
      "Ġval": 1142,
      "Ġchar": 1143,
      "ĠAnd": 1144,
      "der": 1145,
      "vironment": 1146,
      "ves": 1147,
      "Ġoften": 1148,
      "inal": 1149,
      "Ġtreat": 1150,
      "air": 1151,
      "ier": 1152,
      "ĠIs": 1153,
      "stand": 1154,
      "ral": 1155,
      "Ġprovid": 1156,
      "Ġfun": 1157,
      "Ġec": 1158,
      "omen": 1159,
      "Ġorgan": 1160,
      "Ġdesign": 1161,
      "Ġpower": 1162,
      "ĠSe": 1163,
      "Ġvis": 1164,
      "Ġest": 1165,
      "Ġday": 1166,
      "Ġclass": 1167,
      "ien": 1168,
      "ters": 1169,
      "Ġresearch": 1170,
      "Ġtake": 1171,
      "Ġbel": 1172,
      "Ġthree": 1173,
      "ulation": 1174,
      "com": 1175,
      "akes": 1176,
      "Ġ8": 1177,
      "Ġmust": 1178,
      "Ġhuman": 1179,
      "Ġser": 1180,
      "Ġland": 1181,
      "hers": 1182,
      "Ġhand": 1183,
      "dition": 1184,
      "Ġelect": 1185,
      "Ġreport": 1186,
      "20": 1187,
      "Ġgovern": 1188,
      "rent": 1189,
      "Ġdown": 1190,
      "ital": 1191,
      "ĠWhat": 1192,
      "Ġlarge": 1193,
      "ĠWhen": 1194,
      "ium": 1195,
      "aj": 1196,
      "Ġdid": 1197,
      "ĠThese": 1198,
      "Ġlook": 1199,
      "ains": 1200,
      "day": 1201,
      "Ġpoint": 1202,
      "ave": 1203,
      "Ġaround": 1204,
      "iqu": 1205,
      "eg": 1206,
      "ron": 1207,
      "Ġris": 1208,
      "Ġconf": 1209,
      "Ġcontin": 1210,
      "Ġcommon": 1211,
      "iety": 1212,
      "Ġgreat": 1213,
      "uss": 1214,
      "Ġactiv": 1215,
      "Ġplan": 1216,
      "ouse": 1217,
      "Ġexample": 1218,
      "ared": 1219,
      "Ġ199": 1220,
      "Ġsupport": 1221,
      "Ġconst": 1222,
      "ring": 1223,
      "self": 1224,
      "Ġcle": 1225,
      "Ġ9": 1226,
      "Ġredu": 1227,
      "acter": 1228,
      "itions": 1229,
      "ull": 1230,
      "Ġret": 1231,
      "gen": 1232,
      "Ġcor": 1233,
      "Ġcour": 1234,
      "cl": 1235,
      "Ġconsid": 1236,
      "Ġcalled": 1237,
      "Ġequ": 1238,
      "Ġstart": 1239,
      "Ġop": 1240,
      "ĠAt": 1241,
      "Ġbody": 1242,
      "ĠTo": 1243,
      "Ġincluding": 1244,
      "ger": 1245,
      "outh": 1246,
      "Ġthough": 1247,
      "ash": 1248,
      "the": 1249,
      "Ġpublic": 1250,
      "âĢĶ": 1251,
      "ross": 1252,
      "ination": 1253,
      "Ġwrit": 1254,
      "ional": 1255,
      "inc": 1256,
      "Ġcare": 1257,
      "way": 1258,
      "osed": 1259,
      "Ġknown": 1260,
      "Ġmet": 1261,
      "Ġallow": 1262,
      "ĠDe": 1263,
      "'t": 1264,
      "Ġstill": 1265,
      "aterial": 1266,
      "ĠCon": 1267,
      "Ġadv": 1268,
      "Ġeduc": 1269,
      "els": 1270,
      "Ġbuild": 1271,
      "Ġtem": 1272,
      "ĠRes": 1273,
      "rain": 1274,
      "ources": 1275,
      "Ġsom": 1276,
      "reen": 1277,
      "Ġrequire": 1278,
      "raph": 1279,
      "Ġappro": 1280,
      "ĠUniversity": 1281,
      "iod": 1282,
      "Ġthink": 1283,
      "Ġsl": 1284,
      "man": 1285,
      "ĠAmerican": 1286,
      "Ġmight": 1287,
      "ĠAd": 1288,
      "oci": 1289,
      "Ġfew": 1290,
      "bers": 1291,
      "eral": 1292,
      "Ġpresent": 1293,
      "erest": 1294,
      "oun": 1295,
      "Ġplace": 1296,
      "Ġstand": 1297,
      "Ġquest": 1298,
      "Ġenergy": 1299,
      "ization": 1300,
      "ividual": 1301,
      "Ġgu": 1302,
      ",âĢĿ": 1303,
      "ected": 1304,
      "ĠHowever": 1305,
      "Ġbeh": 1306,
      "ior": 1307,
      "amp": 1308,
      "Ġenvironment": 1309,
      "Ġwithout": 1310,
      "ries": 1311,
      "Ġmat": 1312,
      "ton": 1313,
      "Ġeas": 1314,
      "de": 1315,
      "ense": 1316,
      "Ġdirect": 1317,
      "10": 1318,
      "Ġchang": 1319,
      "ffic": 1320,
      "Ġunderstand": 1321,
      "Ġimm": 1322,
      "lish": 1323,
      "Ġdem": 1324,
      "ording": 1325,
      "ets": 1326,
      "ĠEx": 1327,
      "ertain": 1328,
      "Ġpract": 1329,
      "ential": 1330,
      ",\"": 1331,
      "ering": 1332,
      "ids": 1333,
      "Ġwithin": 1334,
      "ption": 1335,
      "orth": 1336,
      "Ġlaw": 1337,
      "ration": 1338,
      "itive": 1339,
      "ĠEng": 1340,
      "eng": 1341,
      "Ġcap": 1342,
      "Ġide": 1343,
      "Ġmaterial": 1344,
      "oms": 1345,
      "line": 1346,
      "illion": 1347,
      "Ġdesc": 1348,
      "ĠPh": 1349,
      "ians": 1350,
      "Ġdevelopment": 1351,
      "Ġproject": 1352,
      "Ġwant": 1353,
      "sp": 1354,
      "iving": 1355,
      "Ġdisease": 1356,
      "Ġpass": 1357,
      "Ġanother": 1358,
      "Ġcaus": 1359,
      "ĠSh": 1360,
      "iven": 1361,
      "Ġchange": 1362,
      "ethod": 1363,
      "Ġeng": 1364,
      "Ġair": 1365,
      "Ġiss": 1366,
      "ason": 1367,
      "Ġindividual": 1368,
      "less": 1369,
      "Ġlight": 1370,
      "angu": 1371,
      "Ġarea": 1372,
      "Ġident": 1373,
      "Ġsit": 1374,
      "arent": 1375,
      "Ġproduct": 1376,
      "ris": 1377,
      "Ġ&": 1378,
      "Ġspe": 1379,
      "esp": 1380,
      "ained": 1381,
      "Ġprof": 1382,
      "ĠOn": 1383,
      "Ġphys": 1384,
      "ats": 1385,
      "Ġrest": 1386,
      "Ġpur": 1387,
      "ug": 1388,
      "atic": 1389,
      "Ġdon": 1390,
      "Ġbelie": 1391,
      "ĠCol": 1392,
      "lished": 1393,
      "ified": 1394,
      "Ġcontrol": 1395,
      "ield": 1396,
      "Ġmil": 1397,
      "âĢĵ": 1398,
      "Ġinclude": 1399,
      "alk": 1400,
      "ajor": 1401,
      "Ġinterest": 1402,
      "Ġsym": 1403,
      "agn": 1404,
      "bs": 1405,
      "Ġmeas": 1406,
      "Ġsever": 1407,
      "Ġbas": 1408,
      "Ġ15": 1409,
      "Ġprogram": 1410,
      "erc": 1411,
      "hor": 1412,
      "Ġgovernment": 1413,
      "ank": 1414,
      "Ġ[": 1415,
      "atural": 1416,
      "Ġeconom": 1417,
      "Ġmark": 1418,
      "ological": 1419,
      "Ġlearn": 1420,
      "ource": 1421,
      "ently": 1422,
      "Ġpot": 1423,
      "Ġplay": 1424,
      "Ġbre": 1425,
      "Ġben": 1426,
      "gin": 1427,
      "Ġpos": 1428,
      "ccess": 1429,
      "Ġve": 1430,
      "Ġold": 1431,
      "Ġlow": 1432,
      "az": 1433,
      "me": 1434,
      "Ġhere": 1435,
      "Ġimpro": 1436,
      "Ġearly": 1437,
      "Ġleg": 1438,
      "Ġbest": 1439,
      "ĠCan": 1440,
      "ability": 1441,
      "ik": 1442,
      "ĠâĢĺ": 1443,
      "ĠUnited": 1444,
      "Ġagainst": 1445,
      "Ġfore": 1446,
      "Ġlast": 1447,
      "rodu": 1448,
      "Ġpercent": 1449,
      "Ġsecond": 1450,
      "ĠQ": 1451,
      "Ġblood": 1452,
      "here": 1453,
      "Ġtre": 1454,
      "ĠCl": 1455,
      "arc": 1456,
      "ission": 1457,
      "use": 1458,
      "Ġant": 1459,
      "Ġnear": 1460,
      "Ġcult": 1461,
      "cing": 1462,
      "Ġter": 1463,
      "ining": 1464,
      "ner": 1465,
      "Ġele": 1466,
      "ify": 1467,
      "Ġpar": 1468,
      "Ġhome": 1469,
      "ĠSo": 1470,
      "ĠPl": 1471,
      "ived": 1472,
      "Ġavail": 1473,
      "Ġproper": 1474,
      "Ġoccur": 1475,
      "iver": 1476,
      "iness": 1477,
      "ograph": 1478,
      "Ġanim": 1479,
      "Ġhistory": 1480,
      "Ġwar": 1481,
      "Ġwomen": 1482,
      "Ġmethod": 1483,
      "tt": 1484,
      "Ġcurrent": 1485,
      "ĠComm": 1486,
      "Ġopp": 1487,
      "ern": 1488,
      "ental": 1489,
      "Ġanal": 1490,
      "Ġsay": 1491,
      "ards": 1492,
      "Ġmove": 1493,
      "Ġseveral": 1494,
      "Ġbecome": 1495,
      "Ġet": 1496,
      "Ġspecies": 1497,
      "Ġoper": 1498,
      "Ġtoo": 1499,
      "rap": 1500,
      "Ġsocial": 1501,
      "Ġparticular": 1502,
      "rist": 1503,
      "ote": 1504,
      "sy": 1505,
      "Ġprovide": 1506,
      "ĠâĢĶ": 1507,
      "Ġunt": 1508,
      "osp": 1509,
      "Ġ.": 1510,
      "ways": 1511,
      "Ġmajor": 1512,
      "Ġtop": 1513,
      "Ġdev": 1514,
      "icle": 1515,
      "Ġfamily": 1516,
      "ills": 1517,
      "ator": 1518,
      "Ġpain": 1519,
      "Ġreal": 1520,
      "ision": 1521,
      "Ġmus": 1522,
      "Ġsince": 1523,
      "Ġorder": 1524,
      "Ġorig": 1525,
      "Ġscient": 1526,
      "Ġrisk": 1527,
      "ĠZ": 1528,
      "Ġperiod": 1529,
      "Ġbetter": 1530,
      "Ġaddition": 1531,
      "ĠEn": 1532,
      "ĠAll": 1533,
      "Ġlim": 1534,
      "ĠBe": 1535,
      "Ġinvol": 1536,
      "Ġsays": 1537,
      "ĠStates": 1538,
      "ples": 1539,
      "Ġpossible": 1540,
      "Ġkeep": 1541,
      "ention": 1542,
      "ients": 1543,
      "view": 1544,
      "irc": 1545,
      "idence": 1546,
      "ames": 1547,
      "Ġ17": 1548,
      "Ġfin": 1549,
      "Ġprop": 1550,
      "Ġmeans": 1551,
      "par": 1552,
      "Ġfour": 1553,
      "Ġmen": 1554,
      "Ġamong": 1555,
      "Ġlangu": 1556,
      "ware": 1557,
      "Ġopen": 1558,
      "Ġname": 1559,
      "Ġ12": 1560,
      "Ġmar": 1561,
      "Ġcountry": 1562,
      "ina": 1563,
      "Ġplant": 1564,
      "Ġhig": 1565,
      "Ġsaf": 1566,
      "ww": 1567,
      "ĠOne": 1568,
      "Ġindu": 1569,
      "Ġ'": 1570,
      "Ġche": 1571,
      "Ġfre": 1572,
      "urop": 1573,
      "ories": 1574,
      "Ġprom": 1575,
      "Ġavailable": 1576,
      "Ġperform": 1577,
      "ek": 1578,
      "Ġcause": 1579,
      "though": 1580,
      "ĠCent": 1581,
      "ĠNational": 1582,
      "lu": 1583,
      "Ġnon": 1584,
      "Ġfollowing": 1585,
      "ended": 1586,
      "Ġpri": 1587,
      "ably": 1588,
      "to": 1589,
      "Ġhapp": 1590,
      "sc": 1591,
      "Ġtimes": 1592,
      "ĠOr": 1593,
      "oid": 1594,
      "Ġel": 1595,
      "ling": 1596,
      "Ġcost": 1597,
      "ead": 1598,
      "Ġfac": 1599,
      "Ġdr": 1600,
      "Ġcond": 1601,
      "Ġareas": 1602,
      "Ġcells": 1603,
      "Ġable": 1604,
      "Ġmean": 1605,
      "ret": 1606,
      "Ġobject": 1607,
      "stit": 1608,
      "ilar": 1609,
      "abor": 1610,
      "Ġothers": 1611,
      "Ġlo": 1612,
      "Ġmonth": 1613,
      "ogn": 1614,
      "Ġbased": 1615,
      "Ġrece": 1616,
      "Ġaccess": 1617,
      "Ġview": 1618,
      "Ġaffect": 1619,
      "ĠTe": 1620,
      "ole": 1621,
      "Ġsignific": 1622,
      "Ġtri": 1623,
      "Ġcase": 1624,
      "Ġcertain": 1625,
      "Ġthings": 1626,
      "Ġlocal": 1627,
      "Ġrun": 1628,
      "Ġpost": 1629,
      "Ġ16": 1630,
      "ĠAf": 1631,
      "Ġbus": 1632,
      "une": 1633,
      "Ġtreatment": 1634,
      "ploy": 1635,
      "Ġlater": 1636,
      "urope": 1637,
      "Ġlist": 1638,
      "ised": 1639,
      "urther": 1640,
      "ends": 1641,
      "ots": 1642,
      "Ġhead": 1643,
      "ĠSome": 1644,
      "Ġ0": 1645,
      "Ġfar": 1646,
      "olution": 1647,
      "Ġbenef": 1648,
      "Ġcal": 1649,
      "Ġbi": 1650,
      "ged": 1651,
      "Ġput": 1652,
      "ggest": 1653,
      "elf": 1654,
      "Ġprevent": 1655,
      "ĠGod": 1656,
      "Ġlittle": 1657,
      "Ġuntil": 1658,
      "Ġbro": 1659,
      "rid": 1660,
      "Ġfil": 1661,
      "Ġstruct": 1662,
      "Ġpress": 1663,
      "Ġfree": 1664,
      "ĠWith": 1665,
      "Ġdel": 1666,
      "Ġdeterm": 1667,
      "Ġlet": 1668,
      "ither": 1669,
      "Ġnatural": 1670,
      "Ġvol": 1671,
      "Ġlearning": 1672,
      "Ġlevels": 1673,
      "Ġproblem": 1674,
      "resent": 1675,
      "Ġage": 1676,
      "Ġsuccess": 1677,
      "aper": 1678,
      "Ġcome": 1679,
      "Ġbir": 1680,
      "Ġsuggest": 1681,
      "Ġbook": 1682,
      "face": 1683,
      "Ġshort": 1684,
      "12": 1685,
      "ĠEurope": 1686,
      "ohn": 1687,
      "not": 1688,
      "ope": 1689,
      "Ġgiven": 1690,
      "Ġassoci": 1691,
      "Ġmult": 1692,
      "Ġintern": 1693,
      "Ġpolit": 1694,
      "oks": 1695,
      "ĠChrist": 1696,
      "work": 1697,
      "Ġseem": 1698,
      "Ġtype": 1699,
      "oint": 1700,
      "Ġsw": 1701,
      "Ġflow": 1702,
      "icult": 1703,
      "Ġamount": 1704,
      "Ġfeel": 1705,
      "ething": 1706,
      "ides": 1707,
      "ocus": 1708,
      "Ġvir": 1709,
      "Ġproblems": 1710,
      "18": 1711,
      "aps": 1712,
      "Ġrecord": 1713,
      "Ġtemper": 1714,
      "Ġappear": 1715,
      "ĠEar": 1716,
      "por": 1717,
      "Ġconn": 1718,
      "ances": 1719,
      "Ġrad": 1720,
      "Ġhard": 1721,
      "Ġ$": 1722,
      "ured": 1723,
      "be": 1724,
      "Ġsystems": 1725,
      "ĠUS": 1726,
      "Ġfunction": 1727,
      "over": 1728,
      "isc": 1729,
      "mit": 1730,
      "ately": 1731,
      "ones": 1732,
      "ĠLe": 1733,
      "ĠMed": 1734,
      "Ġturn": 1735,
      "aken": 1736,
      "Ġcirc": 1737,
      "ned": 1738,
      "ication": 1739,
      "Ġdra": 1740,
      "Ġrele": 1741,
      "ression": 1742,
      "ledge": 1743,
      "ĠBy": 1744,
      "Ġsing": 1745,
      "ĠWor": 1746,
      "atory": 1747,
      "Ġcentury": 1748,
      "Ġdays": 1749,
      "Ġindust": 1750,
      "Ġdue": 1751,
      "Ġauthor": 1752,
      "ĠAfric": 1753,
      "Ġdeath": 1754,
      "Ġobs": 1755,
      "ĠSy": 1756,
      "Ġcomb": 1757,
      "Ġsignificant": 1758,
      "Ġalong": 1759,
      "ape": 1760,
      "ators": 1761,
      "Ġmaking": 1762,
      "ĠBl": 1763,
      "Ġcourse": 1764,
      "uture": 1765,
      "Ġlikely": 1766,
      "vious": 1767,
      "cle": 1768,
      "Ġcomput": 1769,
      "Ġsomething": 1770,
      "Ġyoung": 1771,
      "ler": 1772,
      "Ġimpact": 1773,
      "Ġeducation": 1774,
      "Ġdescrib": 1775,
      "ored": 1776,
      "Ġinvest": 1777,
      "Ġcharacter": 1778,
      "etic": 1779,
      "Ġcreat": 1780,
      "Ġcommunity": 1781,
      "Ġclear": 1782,
      "50": 1783,
      "Ġexist": 1784,
      "Ġline": 1785,
      "aster": 1786,
      "of": 1787,
      "Ġteac": 1788,
      "Ġabove": 1789,
      "Ġlanguage": 1790,
      "Ġill": 1791,
      "Ġmillion": 1792,
      "Ġhowever": 1793,
      "ĠJohn": 1794,
      "Ġconditions": 1795,
      "Ġheart": 1796,
      "ending": 1797,
      "Ġpast": 1798,
      "pr": 1799,
      "ortun": 1800,
      "Ġpopulation": 1801,
      "Ġusually": 1802,
      "...": 1803,
      "ode": 1804,
      "Ġcho": 1805,
      "omm": 1806,
      "ps": 1807,
      "Ġbehav": 1808,
      "anc": 1809,
      "orts": 1810,
      "obal": 1811,
      "ember": 1812,
      "Ġtoday": 1813,
      "Ġenc": 1814,
      "Ġspace": 1815,
      "Ġcrit": 1816,
      "Ġresults": 1817,
      "Ġhy": 1818,
      "ray": 1819,
      "Ġalways": 1820,
      "Ġapplic": 1821,
      "af": 1822,
      "Ġ198": 1823,
      "Ġsimilar": 1824,
      "Ġestab": 1825,
      "pect": 1826,
      "Ġleast": 1827,
      "Ġdifficult": 1828,
      "min": 1829,
      "aining": 1830,
      "Ġfocus": 1831,
      "aves": 1832,
      "Ġincrease": 1833,
      "most": 1834,
      "ĠThat": 1835,
      "Ġspecific": 1836,
      "rate": 1837,
      "Ġnever": 1838,
      "Ġer": 1839,
      "Ġgive": 1840,
      "11": 1841,
      "Ġgre": 1842,
      "ruction": 1843,
      "ours": 1844,
      "Ġtechnology": 1845,
      "ecially": 1846,
      "rug": 1847,
      "ley": 1848,
      "agement": 1849,
      "Ġprofess": 1850,
      "Ġcy": 1851,
      "Ġcases": 1852,
      "Ġleft": 1853,
      "app": 1854,
      "ively": 1855,
      "Ġnext": 1856,
      "sw": 1857,
      "ribut": 1858,
      "ĠGo": 1859,
      "Ġwords": 1860,
      "Ġbegin": 1861,
      "Ġnecess": 1862,
      "put": 1863,
      "acc": 1864,
      "ane": 1865,
      "Ġparent": 1866,
      "Ġspecial": 1867,
      "Ġdiscuss": 1868,
      "Ġess": 1869,
      "iation": 1870,
      "aim": 1871,
      "ĠGen": 1872,
      "oph": 1873,
      "ilities": 1874,
      "asing": 1875,
      "Ġplants": 1876,
      "Ġ14": 1877,
      "ilt": 1878,
      "Ġrespons": 1879,
      "Ġside": 1880,
      "Ġcreate": 1881,
      "Ġmov": 1882,
      "Ġchem": 1883,
      "idd": 1884,
      "Ġchanges": 1885,
      "alf": 1886,
      "ĠWar": 1887,
      "Ġresearc": 1888,
      "Ġhigher": 1889,
      "selves": 1890,
      "val": 1891,
      "Ġprim": 1892,
      "ument": 1893,
      "Ġcomplete": 1894,
      "Ġcolle": 1895,
      "Ġcountries": 1896,
      "__": 1897,
      "Ġplac": 1898,
      "ox": 1899,
      "especially": 1900,
      "Ġtoget": 1901,
      "ĠGe": 1902,
      "Ġtogether": 1903,
      "ued": 1904,
      "Ġz": 1905,
      "Ġcancer": 1906,
      "ĠNe": 1907,
      "Ġconsum": 1908,
      "ĠAb": 1909,
      "ĠAfter": 1910,
      "Ġask": 1911,
      "Ġfuture": 1912,
      "Ġvarious": 1913,
      "ired": 1914,
      "ĠBrit": 1915,
      "atch": 1916,
      "Ġsubject": 1917,
      "Ġmot": 1918,
      "ĠIm": 1919,
      "rim": 1920,
      "Ġenough": 1921,
      "Ġwhy": 1922,
      "unt": 1923,
      "nal": 1924,
      "Ġbrain": 1925,
      "Ġdam": 1926,
      "Ġacross": 1927,
      "Ġgeneral": 1928,
      "let": 1929,
      "Ġey": 1930,
      "ĠCar": 1931,
      "Ġexperience": 1932,
      "oot": 1933,
      "Ġstrong": 1934,
      "Ġtru": 1935,
      "ĠDr": 1936,
      "Ġbecame": 1937,
      "Ġsite": 1938,
      "ĠIntern": 1939,
      "Ġneeds": 1940,
      "ique": 1941,
      "Ġnet": 1942,
      "ges": 1943,
      "Ġterm": 1944,
      "Ġworks": 1945,
      "Ġtry": 1946,
      "Ġfull": 1947,
      "omes": 1948,
      "ĠStud": 1949,
      "Ġkind": 1950,
      "Ġworking": 1951,
      "Ġeffects": 1952,
      "ĠWhile": 1953,
      "ales": 1954,
      "ormal": 1955,
      "Ġground": 1956,
      "Ġstudies": 1957,
      "Ġgr": 1958,
      "Ġhaving": 1959,
      "Ġ30": 1960,
      "Ġaway": 1961,
      "Ġ197": 1962,
      "Ġpatients": 1963,
      "Ġoffic": 1964,
      "duct": 1965,
      "Ġrepresent": 1966,
      "oney": 1967,
      "Ġlower": 1968,
      "erence": 1969,
      "200": 1970,
      "aring": 1971,
      "ĠCal": 1972,
      "Ġconsider": 1973,
      "Ġsum": 1974,
      "Ġespecially": 1975,
      "iting": 1976,
      "ptoms": 1977,
      "ĠGerm": 1978,
      "ĠWorld": 1979,
      "ird": 1980,
      "Ġcity": 1981,
      "Ġfund": 1982,
      "Ġsun": 1983,
      "ush": 1984,
      "Ġwhether": 1985,
      "eds": 1986,
      "ĠHealth": 1987,
      "ires": 1988,
      "ream": 1989,
      "ĠAm": 1990,
      "oman": 1991,
      "30": 1992,
      "sych": 1993,
      "ency": 1994,
      "thing": 1995,
      "istic": 1996,
      "//": 1997,
      "Ġtext": 1998,
      "Ġbusiness": 1999,
      "ready": 2000,
      "ĠMay": 2001,
      "Ġstep": 2002,
      "Ġtool": 2003,
      "itor": 2004,
      "eter": 2005,
      "Ġ11": 2006,
      "Ġrelations": 2007,
      "Ġprotect": 2008,
      "Ġteam": 2009,
      "ysis": 2010,
      "Ġgoing": 2011,
      "aching": 2012,
      "Ġknowledge": 2013,
      "Ġlive": 2014,
      "ĠMar": 2015,
      "Ġfurther": 2016,
      "Ġsurface": 2017,
      "mber": 2018,
      "verage": 2019,
      "apt": 2020,
      "ĠResear": 2021,
      "Ġrather": 2022,
      "for": 2023,
      "Ġconcer": 2024,
      "Ġpolic": 2025,
      "Ġimprove": 2026,
      "port": 2027,
      "by": 2028,
      "Ġproduction": 2029,
      "ann": 2030,
      "NA": 2031,
      "Ġnational": 2032,
      "right": 2033,
      "Ġkey": 2034,
      "Ġaccount": 2035,
      "atures": 2036,
      "Ġopt": 2037,
      "Ġmodel": 2038,
      "esc": 2039,
      "Ġwind": 2040,
      "Ġindic": 2041,
      "Ġstat": 2042,
      "Ġseen": 2043,
      "rams": 2044,
      "ott": 2045,
      "Ġreason": 2046,
      "Ġsens": 2047,
      "ung": 2048,
      "Ġways": 2049,
      "Ġarticle": 2050,
      "Ġprob": 2051,
      "Ġtypes": 2052,
      "Ġphot": 2053,
      "Ġresources": 2054,
      "aut": 2055,
      "ĠSouth": 2056,
      "urch": 2057,
      "augh": 2058,
      "Ġhouse": 2059,
      "ipp": 2060,
      "Ġquestion": 2061,
      "Ġbelow": 2062,
      "Ġclose": 2063,
      "ĠRep": 2064,
      "Ġmic": 2065,
      "Ġinflu": 2066,
      "edi": 2067,
      "Ġeff": 2068,
      "chie": 2069,
      "side": 2070,
      "Ġeither": 2071,
      "rated": 2072,
      "Ġpred": 2073,
      "--": 2074,
      "overed": 2075,
      "wh": 2076,
      "Ġrange": 2077,
      "lo": 2078,
      "Ġwr": 2079,
      "Ġdeveloped": 2080,
      "amm": 2081,
      "lement": 2082,
      "amin": 2083,
      "ae": 2084,
      "ibility": 2085,
      "Ġalready": 2086,
      "Ġgrowth": 2087,
      "ĠEnglish": 2088,
      "Ġword": 2089,
      "Ġclimate": 2090,
      "rict": 2091,
      "Ġloss": 2092,
      "://": 2093,
      "Ġstory": 2094,
      "rel": 2095,
      "ublic": 2096,
      "Ġemploy": 2097,
      "ĠAct": 2098,
      "Ġscience": 2099,
      "Ġrole": 2100,
      "Ġself": 2101,
      "Ġtoward": 2102,
      "ĠShe": 2103,
      "Ġreally": 2104,
      "ands": 2105,
      "Ġvalue": 2106,
      "Ġabs": 2107,
      "Ġphysical": 2108,
      "Ġupon": 2109,
      "ables": 2110,
      "enn": 2111,
      "ites": 2112,
      "Ġfall": 2113,
      "Ġgroups": 2114,
      "org": 2115,
      "ĠNorth": 2116,
      "iam": 2117,
      "ules": 2118,
      "Ġdom": 2119,
      "roll": 2120,
      "Ġonce": 2121,
      "Ġmakes": 2122,
      "ches": 2123,
      "Ġsingle": 2124,
      "fer": 2125,
      "Ġevent": 2126,
      "Ġmind": 2127,
      "Ġparticip": 2128,
      "ee": 2129,
      "ification": 2130,
      "Ġsource": 2131,
      "Ġactivity": 2132,
      "ĠAmerica": 2133,
      "Ġreturn": 2134,
      "Ġfield": 2135,
      "ĠDo": 2136,
      "ĠDep": 2137,
      "bon": 2138,
      "Ġcollect": 2139,
      "Ġoil": 2140,
      "ried": 2141,
      "ivil": 2142,
      "ĠJew": 2143,
      "ER": 2144,
      "ateg": 2145,
      "Ġaddress": 2146,
      "Ġbuilding": 2147,
      "Ġsent": 2148,
      "Ġur": 2149,
      "onst": 2150,
      "Ġfish": 2151,
      "artment": 2152,
      "Ġ13": 2153,
      "Ġevidence": 2154,
      "iple": 2155,
      "ĠAcc": 2156,
      "Ġrate": 2157,
      "Ġsure": 2158,
      "Ġbig": 2159,
      "Ġproducts": 2160,
      "Ġaccording": 2161,
      "Ġdeg": 2162,
      "Ġdone": 2163,
      "ĠCont": 2164,
      "Ġengine": 2165,
      "Ġmass": 2166,
      "ison": 2167,
      "sh": 2168,
      "Ġfive": 2169,
      "Ġfail": 2170,
      "uation": 2171,
      "Ġred": 2172,
      "Ġann": 2173,
      "ĠEarth": 2174,
      "Ġdest": 2175,
      "Ġtaken": 2176,
      "Ġpay": 2177,
      "Ġdrug": 2178,
      "Ġpolitical": 2179,
      "ude": 2180,
      "Ġrecogn": 2181,
      "Ġmembers": 2182,
      "Ġsymptoms": 2183,
      "Ġcut": 2184,
      "Ġfrequ": 2185,
      "15": 2186,
      "Ġdig": 2187,
      "Ġresearchers": 2188,
      "ule": 2189,
      "oura": 2190,
      "Ġcame": 2191,
      "etimes": 2192,
      "ĠHist": 2193,
      "ĠX": 2194,
      "Ġobserv": 2195,
      "Ġtradition": 2196,
      "Ġchall": 2197,
      "ibr": 2198,
      "fact": 2199,
      "ĠYork": 2200,
      "ery": 2201,
      "ĠAss": 2202,
      "Ġpaper": 2203,
      "Ġquality": 2204,
      "Ġpotential": 2205,
      "Ġthemselves": 2206,
      "Ġtot": 2207,
      "Ġinit": 2208,
      "Ġwhole": 2209,
      "Ġactivities": 2210,
      "eb": 2211,
      "Ġsoil": 2212,
      "\".": 2213,
      "lying": 2214,
      "illed": 2215,
      "ĠState": 2216,
      "ĠCo": 2217,
      "Ġlot": 2218,
      "AS": 2219,
      "Ġstates": 2220,
      "like": 2221,
      "Ġneg": 2222,
      "Ġrelig": 2223,
      "ĠHis": 2224,
      "fficient": 2225,
      "Ġsound": 2226,
      "ety": 2227,
      "Ġachie": 2228,
      "Ġ=": 2229,
      "Ġhold": 2230,
      "Ġpublished": 2231,
      "Ġrights": 2232,
      "Ġdetail": 2233,
      "rect": 2234,
      "acy": 2235,
      "Ġ--": 2236,
      "ips": 2237,
      "iol": 2238,
      "Ġport": 2239,
      "Ġrepl": 2240,
      "Ġmeet": 2241,
      "Ġdoc": 2242,
      "ĠNo": 2243,
      "ĠSoc": 2244,
      "Ġbat": 2245,
      "reg": 2246,
      "Ġhistor": 2247,
      "ym": 2248,
      "Ġsize": 2249,
      "Ġwide": 2250,
      "Ġwhite": 2251,
      "ober": 2252,
      "ĠMan": 2253,
      "Ġentire": 2254,
      "Ġquestions": 2255,
      "Ġansw": 2256,
      "Ġconcept": 2257,
      "ĠGu": 2258,
      "Ġri": 2259,
      "Ġlay": 2260,
      "ournal": 2261,
      "ĠÂ": 2262,
      "Ġtell": 2263,
      "Ġanimals": 2264,
      "16": 2265,
      "yn": 2266,
      "ĠMany": 2267,
      "Ġweek": 2268,
      "Ġalmost": 2269,
      "ĠMore": 2270,
      "Ġliving": 2271,
      "hib": 2272,
      "Ġcreated": 2273,
      "Ġreduce": 2274,
      "ront": 2275,
      "reme": 2276,
      "Ġens": 2277,
      "Ġintrodu": 2278,
      "mb": 2279,
      "Ġblack": 2280,
      "Ġcannot": 2281,
      "ights": 2282,
      "Ġnature": 2283,
      "Ġthought": 2284,
      "Ġsal": 2285,
      "Ġincreased": 2286,
      "Ġassociated": 2287,
      "Ġcop": 2288,
      "ĠTr": 2289,
      "Ġrequired": 2290,
      "Ġrecomm": 2291,
      "Ġstudent": 2292,
      "Ġnut": 2293,
      "osis": 2294,
      ".)": 2295,
      "ened": 2296,
      "ask": 2297,
      "leep": 2298,
      "Ġrelated": 2299,
      "Ġmedical": 2300,
      "Ġmaterials": 2301,
      "Ġregion": 2302,
      "Ġpressure": 2303,
      "Ġitself": 2304,
      "Ġissues": 2305,
      "Ġarch": 2306,
      "epend": 2307,
      "Ġver": 2308,
      "ications": 2309,
      "Ġfri": 2310,
      "17": 2311,
      "Ġtook": 2312,
      "Ġconsidered": 2313,
      "Ġhalf": 2314,
      "Ġeconomic": 2315,
      "itary": 2316,
      "urity": 2317,
      "Ġbegan": 2318,
      "Ġdog": 2319,
      "Ġactually": 2320,
      "Ġfamil": 2321,
      "oon": 2322,
      "sequ": 2323,
      "ĠPe": 2324,
      "Ġneeded": 2325,
      "Ġflu": 2326,
      "olic": 2327,
      "13": 2328,
      "ĠAust": 2329,
      "Ġmaint": 2330,
      "Ġfig": 2331,
      "aged": 2332,
      "Ġcomplex": 2333,
      "):": 2334,
      "uel": 2335,
      "pos": 2336,
      "Ġmodern": 2337,
      "Ġglobal": 2338,
      "ederal": 2339,
      "Ġclaim": 2340,
      "Ġbar": 2341,
      "ney": 2342,
      "ulations": 2343,
      "Ġcr": 2344,
      "Ġsimple": 2345,
      "Ġskills": 2346,
      "Ġge": 2347,
      "yl": 2348,
      "Ġprovides": 2349,
      "rad": 2350,
      "Ġdoct": 2351,
      "vere": 2352,
      "Ġ100": 2353,
      "ĠInstit": 2354,
      "Ġparts": 2355,
      "Ġvers": 2356,
      "erve": 2357,
      "ĠSu": 2358,
      "Ġrelationship": 2359,
      "Ġhtt": 2360,
      "Ġmarket": 2361,
      "ĠCanad": 2362,
      "ĠMost": 2363,
      "14": 2364,
      "rown": 2365,
      "Ġprote": 2366,
      "Ġproduce": 2367,
      "chan": 2368,
      "go": 2369,
      "acks": 2370,
      "Ġarg": 2371,
      "Ġtemperature": 2372,
      "Ġsuper": 2373,
      "ivity": 2374,
      "Ġpractice": 2375,
      "Ġpriv": 2376,
      "Ġmonths": 2377,
      "Ġfarm": 2378,
      "ĠResearch": 2379,
      "ript": 2380,
      "ma": 2381,
      "mon": 2382,
      "Ġ196": 2383,
      "Ġcondition": 2384,
      "Ġquick": 2385,
      "Ġfat": 2386,
      "utions": 2387,
      "Ġliter": 2388,
      "Ġdiet": 2389,
      "utes": 2390,
      "ĠFl": 2391,
      "Ġidea": 2392,
      "Ġshows": 2393,
      "Ġadult": 2394,
      "Ġlink": 2395,
      "Ġsix": 2396,
      "Ġcat": 2397,
      "Ġmoney": 2398,
      "bo": 2399,
      "Ġservice": 2400,
      "Ġrecent": 2401,
      "Ġnecessary": 2402,
      "hing": 2403,
      "oll": 2404,
      "Ġpattern": 2405,
      "empt": 2406,
      "ores": 2407,
      "Ġsepar": 2408,
      "abit": 2409,
      "Th": 2410,
      "gest": 2411,
      "Ġemer": 2412,
      "Ġ50": 2413,
      "Ġbuilt": 2414,
      "ricult": 2415,
      "irm": 2416,
      "ences": 2417,
      "estern": 2418,
      "Ġanc": 2419,
      "Ġever": 2420,
      "ume": 2421,
      "Ġskin": 2422,
      "Ġchemical": 2423,
      "ging": 2424,
      "Ġability": 2425,
      "ply": 2426,
      "âĢ¦": 2427,
      "Ġmeasure": 2428,
      "ĠAlthough": 2429,
      "Ġlab": 2430,
      "Ġgreen": 2431,
      "Ġthroughout": 2432,
      "ucle": 2433,
      "ID": 2434,
      "Ġmor": 2435,
      "Ġreact": 2436,
      "Ġcoll": 2437,
      "Ġopportun": 2438,
      "ening": 2439,
      "Ġyet": 2440,
      "izing": 2441,
      "Ġgas": 2442,
      "Ġservices": 2443,
      "ump": 2444,
      "my": 2445,
      "Ġexperien": 2446,
      "Ġeffective": 2447,
      "icles": 2448,
      "son": 2449,
      "Ġsense": 2450,
      "vey": 2451,
      "Ġenvironmental": 2452,
      "aging": 2453,
      "Ġcamp": 2454,
      "based": 2455,
      "Ġconduct": 2456,
      "pid": 2457,
      "ES": 2458,
      "Ġdri": 2459,
      "Ġwin": 2460,
      "ĠEm": 2461,
      "Ġapproach": 2462,
      "Ġunderstanding": 2463,
      "Ġcomes": 2464,
      "ister": 2465,
      "Ġregard": 2466,
      "het": 2467,
      "Ġheat": 2468,
      "Ġcolor": 2469,
      "Ġassess": 2470,
      "Ġla": 2471,
      "ched": 2472,
      "Ġterms": 2473,
      "ĠII": 2474,
      "ections": 2475,
      "Ġ25": 2476,
      "uck": 2477,
      "Ġprovided": 2478,
      "ival": 2479,
      "nces": 2480,
      "Ġsurv": 2481,
      "Ġut": 2482,
      "Ġavoid": 2483,
      "Ġtotal": 2484,
      "ĠSchool": 2485,
      "Ġstress": 2486,
      "ĠOther": 2487,
      "iment": 2488,
      "apan": 2489,
      "urs": 2490,
      "Ġmanagement": 2491,
      "Ġcomputer": 2492,
      "Ġweight": 2493,
      "Ġprograms": 2494,
      "eed": 2495,
      "Ġsoft": 2496,
      "Ġfire": 2497,
      "rench": 2498,
      "Ġprinc": 2499,
      "Ġfactors": 2500,
      "Ġparents": 2501,
      "Ġtaking": 2502,
      "Ġstop": 2503,
      "iddle": 2504,
      "Ġsuff": 2505,
      "ai": 2506,
      "Ġjob": 2507,
      "Ġpath": 2508,
      "Ġrelative": 2509,
      "Ġsam": 2510,
      "erous": 2511,
      "Ġsubst": 2512,
      "Ġast": 2513,
      "Ġcontent": 2514,
      "Ġhours": 2515,
      "Ġanalysis": 2516,
      "Ġdeb": 2517,
      "Ġprevious": 2518,
      "ĠSec": 2519,
      "ĠHere": 2520,
      "ĠWill": 2521,
      "ensive": 2522,
      "AR": 2523,
      "ĠPres": 2524,
      "Ġpopular": 2525,
      "ĠQu": 2526,
      "Ġhealthy": 2527,
      "usion": 2528,
      "Ġreading": 2529,
      "Ġaction": 2530,
      "Ġstructure": 2531,
      "minist": 2532,
      "iction": 2533,
      "Ġheav": 2534,
      "abet": 2535,
      "ĠCount": 2536,
      "imately": 2537,
      "ĠAccording": 2538,
      "atives": 2539,
      "ene": 2540,
      "ĠPer": 2541,
      "Ġvari": 2542,
      "Ġ194": 2543,
      "Ġearth": 2544,
      "emic": 2545,
      "Ġaverage": 2546,
      "Ġexerc": 2547,
      "Ġindividuals": 2548,
      "rought": 2549,
      "ĠBritish": 2550,
      "Ã©": 2551,
      "Ġlonger": 2552,
      "Ġdesigned": 2553,
      "Ġsat": 2554,
      "Ġdisord": 2555,
      "Ġconc": 2556,
      "Ġorigin": 2557,
      "ropri": 2558,
      "lt": 2559,
      "Ġtrue": 2560,
      "ĠEd": 2561,
      "Ġbur": 2562,
      "Ġincreasing": 2563,
      "Ġscientists": 2564,
      "onse": 2565,
      "Ġpage": 2566,
      "Ġpersonal": 2567,
      "pro": 2568,
      "Ġtraining": 2569,
      "inary": 2570,
      "hood": 2571,
      "Ġinteract": 2572,
      "AT": 2573,
      "Ġcontain": 2574,
      "Ġfru": 2575,
      "ows": 2576,
      "Ġbehavior": 2577,
      "amed": 2578,
      "fully": 2579,
      "Ġschools": 2580,
      "ades": 2581,
      "ĠPr": 2582,
      "att": 2583,
      "asc": 2584,
      "Ġaccept": 2585,
      "Ġtar": 2586,
      "ns": 2587,
      "Ġcaused": 2588,
      "Ġrev": 2589,
      "ington": 2590,
      "Ġreported": 2591,
      "Ġwild": 2592,
      "Ġtherap": 2593,
      "Ġsex": 2594,
      "ĠPar": 2595,
      "Ġtravel": 2596,
      "Ġwriting": 2597,
      "Ġonline": 2598,
      "Ġce": 2599,
      "Ġtalk": 2600,
      "Ġposition": 2601,
      "Ġcalc": 2602,
      "ĠMin": 2603,
      "Ġindustry": 2604,
      "ĠMe": 2605,
      "Ġcit": 2606,
      "ĠJapan": 2607,
      "ĠKing": 2608,
      "ĠCons": 2609,
      "lands": 2610,
      "aff": 2611,
      "Ġthing": 2612,
      "yle": 2613,
      "umb": 2614,
      "Ġmatter": 2615,
      "ĠAg": 2616,
      "Ġshown": 2617,
      "Ġstandard": 2618,
      "Ġpict": 2619,
      "ĠPre": 2620,
      "aries": 2621,
      "duc": 2622,
      "Ġgenerally": 2623,
      "ising": 2624,
      "Ġcontact": 2625,
      "ze": 2626,
      "Ġwritten": 2627,
      "ese": 2628,
      "Ġvide": 2629,
      "ĠApp": 2630,
      "Ġgreater": 2631,
      "Ġvariety": 2632,
      "Ġetc": 2633,
      "Ġsources": 2634,
      "Ġspread": 2635,
      "ĠFrom": 2636,
      "ached": 2637,
      "Ġmovement": 2638,
      "arily": 2639,
      "Ġincludes": 2640,
      "Ġbring": 2641,
      "Ġthreat": 2642,
      "Ġfeed": 2643,
      "ronic": 2644,
      "Ġbreak": 2645,
      "anced": 2646,
      "ĠCalif": 2647,
      "ĠInf": 2648,
      "Ġcoun": 2649,
      "Ġsimply": 2650,
      "Ġclean": 2651,
      "Ġple": 2652,
      "Ġmechan": 2653,
      "ĠIndia": 2654,
      "Ġdeep": 2655,
      "Ġpsych": 2656,
      "istics": 2657,
      "ĠYour": 2658,
      "Ġnormal": 2659,
      "Ġbacter": 2660,
      "Ġbelieve": 2661,
      "Ġmeaning": 2662,
      "Ġslow": 2663,
      "Ġsea": 2664,
      "Ġprobably": 2665,
      "Ġcompany": 2666,
      "ength": 2667,
      "Ġled": 2668,
      "hold": 2669,
      "Ġprec": 2670,
      "Ġuses": 2671,
      "Ġissue": 2672,
      "Ġtax": 2673,
      "ĠBo": 2674,
      "Ġsleep": 2675,
      "Ġdiagn": 2676,
      "Ġcheck": 2677,
      "ĠInt": 2678,
      "Ġ2010": 2679,
      "Ġoriginal": 2680,
      "Ġparticularly": 2681,
      "istance": 2682,
      "cies": 2683,
      "Ġevents": 2684,
      "Ġvacc": 2685,
      "amb": 2686,
      "Ġcarbon": 2687,
      "ĠHar": 2688,
      "Ġmethods": 2689,
      "verse": 2690,
      "Ġsqu": 2691,
      "Ġlives": 2692,
      "Ġrespect": 2693,
      "new": 2694,
      "ĠScience": 2695,
      "Ġattempt": 2696,
      "ĠNot": 2697,
      "Ġinvolved": 2698,
      "ĠFran": 2699,
      "ĠRec": 2700,
      "itude": 2701,
      "aily": 2702,
      "ĠJu": 2703,
      "aving": 2704,
      "Ġ/": 2705,
      "ĠPart": 2706,
      "Ġtown": 2707,
      "Ġfem": 2708,
      "Ġproduced": 2709,
      "Ġste": 2710,
      "Ġexc": 2711,
      "Ġsafe": 2712,
      "ĠCenter": 2713,
      "icine": 2714,
      "Ġrefer": 2715,
      "rial": 2716,
      "Ġvirus": 2717,
      "Ġcompl": 2718,
      "ctions": 2719,
      "Ġforms": 2720,
      "rast": 2721,
      "Ġlate": 2722,
      "ĠGl": 2723,
      "Ġsometimes": 2724,
      "Ġemb": 2725,
      "Ġinteg": 2726,
      "Ġpositive": 2727,
      "gar": 2728,
      "imum": 2729,
      "Ġregular": 2730,
      "ĠUs": 2731,
      "Ġculture": 2732,
      "Ġmess": 2733,
      "Ġimage": 2734,
      "Ġ24": 2735,
      "Ġlat": 2736,
      "Ġface": 2737,
      "ief": 2738,
      "ography": 2739,
      "ufact": 2740,
      "ornia": 2741,
      "ĠDepartment": 2742,
      "ĠFrench": 2743,
      "ĠOf": 2744,
      "Ġinj": 2745,
      "ĠAustral": 2746,
      "Ġeasy": 2747,
      "Ġwarm": 2748,
      "vention": 2749,
      "Ġpoor": 2750,
      "ĠBec": 2751,
      "Ġbasic": 2752,
      "eration": 2753,
      "dom": 2754,
      "Ġnetwork": 2755,
      "Ġfeet": 2756,
      "Ġreview": 2757,
      "Ġpoll": 2758,
      "Ġ2012": 2759,
      "ĠCO": 2760,
      "ĠComp": 2761,
      "rand": 2762,
      "Ġcauses": 2763,
      "astic": 2764,
      "ervation": 2765,
      "Ġviol": 2766,
      "Ġsociety": 2767,
      "haps": 2768,
      "Ġforce": 2769,
      "ulate": 2770,
      "25": 2771,
      "Ġvisit": 2772,
      "Ġseries": 2773,
      "uge": 2774,
      "Ġdraw": 2775,
      "Ġaff": 2776,
      "Ġlack": 2777,
      "Ġlif": 2778,
      "Ġdeveloping": 2779,
      "Ġdemonst": 2780,
      "ĠNow": 2781,
      "ĠDuring": 2782,
      "ĠJes": 2783,
      "ĠAc": 2784,
      "ĠKe": 2785,
      "Ġeat": 2786,
      "reng": 2787,
      "Ġnation": 2788,
      "Ġago": 2789,
      "know": 2790,
      "Ġwebs": 2791,
      "Ġnumbers": 2792,
      "Ġteachers": 2793,
      "lex": 2794,
      "raft": 2795,
      "Ġoutside": 2796,
      "aches": 2797,
      "ribution": 2798,
      "ĠCalifornia": 2799,
      "lies": 2800,
      "uth": 2801,
      "In": 2802,
      "Ġgrowing": 2803,
      "bor": 2804,
      "Ġconsist": 2805,
      "Ġremov": 2806,
      "IN": 2807,
      "ming": 2808,
      "Ġmusic": 2809,
      "Ġencoura": 2810,
      "oor": 2811,
      "Ġir": 2812,
      "rie": 2813,
      "Ġ,": 2814,
      "Ġtree": 2815,
      "aling": 2816,
      "Ġdoing": 2817,
      "Ġserious": 2818,
      "Ġsafety": 2819,
      "ĠTw": 2820,
      "Ġap": 2821,
      "ops": 2822,
      "Ġwood": 2823,
      "issions": 2824,
      "Ġbr": 2825,
      "IS": 2826,
      "Ġ40": 2827,
      "Ġidentify": 2828,
      "ĠJan": 2829,
      "Ġtarget": 2830,
      "itation": 2831,
      "Ġextreme": 2832,
      "ony": 2833,
      "ĠEduc": 2834,
      "set": 2835,
      "Ġstri": 2836,
      "Ġmach": 2837,
      "Ġincluded": 2838,
      "ĠAug": 2839,
      "Ġforest": 2840,
      "Ġmedia": 2841,
      "Ġcompan": 2842,
      "Ġharm": 2843,
      "Ġbenefits": 2844,
      "Ġprint": 2845,
      "Ġresponse": 2846,
      "ground": 2847,
      "ĠTra": 2848,
      "Ġthus": 2849,
      "ĠAnt": 2850,
      "Ġcontinue": 2851,
      "Ġsolar": 2852,
      "pose": 2853,
      "Ġox": 2854,
      "Ġinvestig": 2855,
      "Ġconcent": 2856,
      "ĠEl": 2857,
      "cil": 2858,
      "ana": 2859,
      "ĠInstitute": 2860,
      "ĠMarch": 2861,
      "ĠFirst": 2862,
      "Ġi": 2863,
      "Ġsil": 2864,
      "ĠArt": 2865,
      "inks": 2866,
      "Ġlog": 2867,
      "Ġnight": 2868,
      "Ġtur": 2869,
      "bre": 2870,
      "isions": 2871,
      "Ġestablished": 2872,
      "Ġelectric": 2873,
      "ĠDav": 2874,
      "Ġdefin": 2875,
      "oles": 2876,
      "ĠIndian": 2877,
      "Ġtend": 2878,
      "Ġinstead": 2879,
      "Ġtheory": 2880,
      "Ġdou": 2881,
      "ads": 2882,
      "Ġmicro": 2883,
      "ĠWest": 2884,
      "ius": 2885,
      "Ġcompet": 2886,
      "Ġexpress": 2887,
      "Ġhttp": 2888,
      "Ġnucle": 2889,
      "Ġcompon": 2890,
      "Ġshare": 2891,
      "hel": 2892,
      "Ġcust": 2893,
      "Ġmount": 2894,
      "Ġimplement": 2895,
      "Ġprimary": 2896,
      "Ġindepend": 2897,
      "Ġlove": 2898,
      "light": 2899,
      "ĠSm": 2900,
      "Ġdamage": 2901,
      "elt": 2902,
      "ership": 2903,
      "Ġinternational": 2904,
      "ĠChina": 2905,
      "Ġtakes": 2906,
      "ulated": 2907,
      "ĠMy": 2908,
      "ror": 2909,
      "Ġwall": 2910,
      "ĠChild": 2911,
      "ided": 2912,
      "thern": 2913,
      "www": 2914,
      "Ġdiv": 2915,
      "ems": 2916,
      "Ġhyd": 2917,
      "uk": 2918,
      "Ġlooking": 2919,
      "room": 2920,
      "Ġanimal": 2921,
      "Ġcorrect": 2922,
      "Ġheld": 2923,
      "elling": 2924,
      "ĠEuropean": 2925,
      "Ġcapt": 2926,
      "Ġfav": 2927,
      "ille": 2928,
      "ĠChar": 2929,
      "Ġdetermine": 2930,
      "Ġfa": 2931,
      "Ġselect": 2932,
      "hest": 2933,
      "Ġprep": 2934,
      "Ġadded": 2935,
      "Ġestim": 2936,
      "Ġsou": 2937,
      "Ġquite": 2938,
      "Ġsust": 2939,
      "Ġappropri": 2940,
      "Ġspir": 2941,
      "ĠAfrican": 2942,
      "Ġpolicy": 2943,
      "Ġofficial": 2944,
      "abetes": 2945,
      "22": 2946,
      "ĠBar": 2947,
      "Ġfoods": 2948,
      "Ġcommit": 2949,
      "Ġwhose": 2950,
      "Ġdispl": 2951,
      "Ġlabor": 2952,
      "Ġattention": 2953,
      "Ġthous": 2954,
      "Ġstreng": 2955,
      "Ġ2011": 2956,
      "Ġcross": 2957,
      "ellow": 2958,
      "ino": 2959,
      "Ġthird": 2960,
      "Ġvit": 2961,
      "Ġtherefore": 2962,
      "Ġinstit": 2963,
      "Ġmagn": 2964,
      "pril": 2965,
      "overy": 2966,
      "useum": 2967,
      "uary": 2968,
      "Ġeth": 2969,
      "Ġwent": 2970,
      "ĠCor": 2971,
      "gency": 2972,
      "ises": 2973,
      "rs": 2974,
      "AN": 2975,
      "Ġmilitary": 2976,
      "Ġscientific": 2977,
      "Ġdoesn": 2978,
      "Ġdocument": 2979,
      "hy": 2980,
      "Ġmanufact": 2981,
      "Ġadditional": 2982,
      "Ġeasily": 2983,
      "Ġcover": 2984,
      "Ġessential": 2985,
      "Ġcivil": 2986,
      "Ġdiseases": 2987,
      "rance": 2988,
      "Ġhumans": 2989,
      "ĠWash": 2990,
      "Ġreflect": 2991,
      "na": 2992,
      "ĠReg": 2993,
      "ĠJesus": 2994,
      "Ġx": 2995,
      "cean": 2996,
      "Ġrout": 2997,
      "ying": 2998,
      "ties": 2999,
      "Ġmother": 3000,
      "Ġsearch": 3001,
      "Ġmiles": 3002,
      "ceed": 3003,
      "Ġcommunities": 3004,
      "Ġbooks": 3005,
      "hern": 3006,
      "Ġ2008": 3007,
      "erg": 3008,
      "Ġveget": 3009,
      "Ġhor": 3010,
      "Ġstarted": 3011,
      "oes": 3012,
      "ĠInc": 3013,
      "iency": 3014,
      "We": 3015,
      "oly": 3016,
      "undred": 3017,
      "aces": 3018,
      "Ġaltern": 3019,
      "Ġful": 3020,
      "Ġnorth": 3021,
      "ĠRuss": 3022,
      "asons": 3023,
      "ĠInternational": 3024,
      "Ġreve": 3025,
      "ancy": 3026,
      "Ġtraditional": 3027,
      "Ġhost": 3028,
      "Ġlarger": 3029,
      "Ġjud": 3030,
      "ĠRiver": 3031,
      "cell": 3032,
      "where": 3033,
      "ĠSince": 3034,
      "estic": 3035,
      "Ġcentral": 3036,
      "ĠHistory": 3037,
      "ription": 3038,
      "Ġmultiple": 3039,
      "term": 3040,
      "Ġhelps": 3041,
      "Ġdirectly": 3042,
      "ounds": 3043,
      "Ġgetting": 3044,
      "Ġtrees": 3045,
      "lied": 3046,
      "anks": 3047,
      "Ġbirth": 3048,
      "Ġchalleng": 3049,
      "ibrary": 3050,
      "Ġaware": 3051,
      "Ġ2009": 3052,
      "Ġattack": 3053,
      "lection": 3054,
      "Ġalthough": 3055,
      "Ġdifference": 3056,
      "Ġpoints": 3057,
      "Ġsouth": 3058,
      "Ġdang": 3059,
      "ĠMc": 3060,
      "Ġseems": 3061,
      "60": 3062,
      "Ġworkers": 3063,
      "Ġbal": 3064,
      "ension": 3065,
      "Ġdry": 3066,
      "iter": 3067,
      "ĠSept": 3068,
      "Ġimmedi": 3069,
      "Ġshall": 3070,
      "ĠGree": 3071,
      "ĠAfrica": 3072,
      "ha": 3073,
      "Ġsold": 3074,
      "ĠPol": 3075,
      "ĠOur": 3076,
      "osing": 3077,
      "Ġprogress": 3078,
      "Ġensure": 3079,
      "ĠOct": 3080,
      "'re": 3081,
      "ĠCong": 3082,
      "ĠServ": 3083,
      "osure": 3084,
      "ift": 3085,
      "Ġagricult": 3086,
      "Ġemot": 3087,
      "olec": 3088,
      "OR": 3089,
      "ON": 3090,
      "den": 3091,
      "Ġsites": 3092,
      "ĠEven": 3093,
      "Ġkids": 3094,
      "ĠPress": 3095,
      "Ġlimited": 3096,
      "Ġbab": 3097,
      "Ġactive": 3098,
      "Ġideas": 3099,
      "pe": 3100,
      "Ġpatient": 3101,
      "IC": 3102,
      "Ġaud": 3103,
      "isms": 3104,
      "ĠSch": 3105,
      "ĠJune": 3106,
      "ĠMus": 3107,
      "Ġpack": 3108,
      "ĠHer": 3109,
      "Ġunique": 3110,
      "21": 3111,
      "Ġsoon": 3112,
      "Ġcapital": 3113,
      "Ġdaily": 3114,
      "rab": 3115,
      "ĠGerman": 3116,
      "Ġobt": 3117,
      "Ġallows": 3118,
      "Ġlost": 3119,
      "ama": 3120,
      "uman": 3121,
      "orthern": 3122,
      "Ġbeginning": 3123,
      "ĠAugust": 3124,
      "PA": 3125,
      "Ġsection": 3126,
      "Ġ21": 3127,
      "Ġreceived": 3128,
      "Ġice": 3129,
      "erson": 3130,
      "ĠGovern": 3131,
      "Ġcred": 3132,
      "Ġsomeone": 3133,
      "yond": 3134,
      "rael": 3135,
      "Ġfront": 3136,
      "arr": 3137,
      "Ġsevere": 3138,
      "Ġapplication": 3139,
      "Ġinside": 3140,
      "Ġbehind": 3141,
      "Ġanswer": 3142,
      "Ġcompared": 3143,
      "Ġang": 3144,
      "ĠProg": 3145,
      "IV": 3146,
      "lation": 3147,
      "ĠRet": 3148,
      "Ġfamilies": 3149,
      "mission": 3150,
      "Ġlocated": 3151,
      "40": 3152,
      "Ġdescribed": 3153,
      "It": 3154,
      "Ġelements": 3155,
      "Ġtools": 3156,
      "lier": 3157,
      "osition": 3158,
      "Ġdecl": 3159,
      "Ġachieve": 3160,
      "Ġspeak": 3161,
      "Ġhimself": 3162,
      "Ġcoast": 3163,
      "Ġprotection": 3164,
      "ica": 3165,
      "Ġfoot": 3166,
      "ĠPresident": 3167,
      "icated": 3168,
      "Ġquickly": 3169,
      "Ġeval": 3170,
      "Ġcitiz": 3171,
      "ĠWhy": 3172,
      "ĠApril": 3173,
      "Ġperformance": 3174,
      "Ġbroad": 3175,
      "Ġgard": 3176,
      "ĠWashington": 3177,
      "eks": 3178,
      "ils": 3179,
      "ls": 3180,
      "Ġbit": 3181,
      "Ġhighly": 3182,
      "Ġnearly": 3183,
      "Ġdecre": 3184,
      "Ġinfection": 3185,
      "Ġproced": 3186,
      "lim": 3187,
      "Ġcontains": 3188,
      "Ġwrite": 3189,
      "Ġancient": 3190,
      "80": 3191,
      "Ġmemory": 3192,
      "aul": 3193,
      "ĠAlso": 3194,
      "ĠâĢ¢": 3195,
      "Ġlength": 3196,
      "Ġmental": 3197,
      "Ġfederal": 3198,
      "Ġvideo": 3199,
      "Ġbase": 3200,
      "ancial": 3201,
      "Ġclin": 3202,
      "ban": 3203,
      "Ġprior": 3204,
      "Ġacid": 3205,
      "ĠCounty": 3206,
      "Ġhabit": 3207,
      "Ġuseful": 3208,
      "bit": 3209,
      "ĠRead": 3210,
      "Ġoffer": 3211,
      "ĠSee": 3212,
      "Ġhar": 3213,
      "iques": 3214,
      "Ġcritical": 3215,
      "ĠJuly": 3216,
      "ĠBecause": 3217,
      "Ġinterp": 3218,
      "rogen": 3219,
      "ĠCanada": 3220,
      "Ġlaws": 3221,
      "Ġhands": 3222,
      "Ġbad": 3223,
      "Ġcompanies": 3224,
      "Ġhundred": 3225,
      "omet": 3226,
      "Ġunc": 3227,
      "Ġones": 3228,
      "Ġhot": 3229,
      "Ġ*": 3230,
      "Ġinn": 3231,
      "Ġ2007": 3232,
      "Ġbul": 3233,
      "ields": 3234,
      "ĠThen": 3235,
      "ĠWilliam": 3236,
      "Ġexcept": 3237,
      "pper": 3238,
      "Ġimpl": 3239,
      "Ġeye": 3240,
      "see": 3241,
      "Ġminutes": 3242,
      "alt": 3243,
      "Ġexpect": 3244,
      "Ġleading": 3245,
      "Ġnews": 3246,
      "Ġnegative": 3247,
      "Ġsummer": 3248,
      "Ġprivate": 3249,
      "cks": 3250,
      "Ġextra": 3251,
      "Ġsoftware": 3252,
      "Ġstra": 3253,
      "ĠMon": 3254,
      "Ġagree": 3255,
      "Ġsupply": 3256,
      "Ġappe": 3257,
      "ĠVir": 3258,
      "Ġbrought": 3259,
      "Ġgame": 3260,
      "used": 3261,
      "Ġadminist": 3262,
      "Ġremain": 3263,
      "iers": 3264,
      "izations": 3265,
      "Ġcommand": 3266,
      "Ġanaly": 3267,
      "Ġdrink": 3268,
      "fect": 3269,
      "resh": 3270,
      "uries": 3271,
      "Ġproperty": 3272,
      "Ġreligious": 3273,
      "vest": 3274,
      "Ġexact": 3275,
      "Ġblock": 3276,
      "ĠAmericans": 3277,
      "Ġsymb": 3278,
      "Ġwa": 3279,
      "Ġwid": 3280,
      "Ġtransport": 3281,
      "Ġpurpose": 3282,
      "ĠIsrael": 3283,
      "ologies": 3284,
      "edia": 3285,
      "ching": 3286,
      "Ġstay": 3287,
      "oke": 3288,
      "wise": 3289,
      "joy": 3290,
      "Ġimages": 3291,
      "23": 3292,
      "ira": 3293,
      "Ġaspect": 3294,
      "Ġcontribut": 3295,
      "hens": 3296,
      "ĠAssoci": 3297,
      "Ġmill": 3298,
      "oring": 3299,
      "Ġsituation": 3300,
      "Ġmid": 3301,
      "leb": 3302,
      "Ġborn": 3303,
      "Ġrequires": 3304,
      "ham": 3305,
      "mosp": 3306,
      "Ġadj": 3307,
      "Ġlargest": 3308,
      "Ġseason": 3309,
      "Ġtable": 3310,
      "Ġtiss": 3311,
      "Ġcool": 3312,
      "Ġgot": 3313,
      "Ġrates": 3314,
      "Ġelse": 3315,
      "Ġquant": 3316,
      "inct": 3317,
      "Ġord": 3318,
      "rates": 3319,
      "Ġwalk": 3320,
      "ĠWater": 3321,
      "Ġtold": 3322,
      "Ġep": 3323,
      "istry": 3324,
      "Ġroom": 3325,
      "Ġlines": 3326,
      "ĠSw": 3327,
      "ĠEngland": 3328,
      "Ġgoal": 3329,
      "Ġsecurity": 3330,
      "Ġdoctor": 3331,
      "ender": 3332,
      "ridge": 3333,
      "Ġfight": 3334,
      "Ġrock": 3335,
      "Ġ2013": 3336,
      "ula": 3337,
      "Ġcarry": 3338,
      "Ġcapac": 3339,
      "Ġtowards": 3340,
      "Ġplaces": 3341,
      "sect": 3342,
      "aid": 3343,
      "rote": 3344,
      "Ġprotein": 3345,
      "Ġwebsite": 3346,
      "cember": 3347,
      "EN": 3348,
      "arian": 3349,
      "Ġappropriate": 3350,
      "rig": 3351,
      "Ġestablish": 3352,
      "Ġbasis": 3353,
      "vant": 3354,
      "Ġ23": 3355,
      "Ġrare": 3356,
      "Ġremains": 3357,
      "coh": 3358,
      "Ġinstall": 3359,
      "Ġcustom": 3360,
      "ĠAre": 3361,
      "aters": 3362,
      "rag": 3363,
      "Ġtests": 3364,
      "Ġcommunication": 3365,
      "Ġfast": 3366,
      "itect": 3367,
      "oming": 3368,
      "Ġdark": 3369,
      "oses": 3370,
      "ĠChurch": 3371,
      "Ġdead": 3372,
      "ĠDay": 3373,
      "Ġcrop": 3374,
      "ipment": 3375,
      "Ġking": 3376,
      "Ġfeatures": 3377,
      "exic": 3378,
      "ĠLear": 3379,
      "This": 3380,
      "Ġcard": 3381,
      "Ġbott": 3382,
      "Ġegg": 3383,
      "life": 3384,
      "Ġmom": 3385,
      "Ġweeks": 3386,
      "ĠSystem": 3387,
      "itis": 3388,
      "Ġthinking": 3389,
      "Ġdied": 3390,
      "ospital": 3391,
      "iot": 3392,
      "Ġfram": 3393,
      "ĠMod": 3394,
      "ura": 3395,
      "ĠChristian": 3396,
      "ĠEducation": 3397,
      "Ġvalues": 3398,
      "Ġinfluence": 3399,
      "Ġteaching": 3400,
      "Ġsaw": 3401,
      "199": 3402,
      ");": 3403,
      "ext": 3404,
      "aught": 3405,
      "Ġvict": 3406,
      "ĠJewish": 3407,
      "Ġcode": 3408,
      "ĠDevelop": 3409,
      "ĠSim": 3410,
      "uments": 3411,
      "iles": 3412,
      "ilos": 3413,
      "iber": 3414,
      "Ġreach": 3415,
      "gn": 3416,
      "Ġhyp": 3417,
      "ĠRed": 3418,
      "ĠFeb": 3419,
      "Ġrapid": 3420,
      "aly": 3421,
      "Ġcenter": 3422,
      "Ġund": 3423,
      "Ġsequ": 3424,
      "Ġweb": 3425,
      "Ġfather": 3426,
      "Ġgradu": 3427,
      "Ġaccom": 3428,
      "ĠSeptember": 3429,
      "Ġson": 3430,
      "ĠEc": 3431,
      "Ġadop": 3432,
      "Ġrecently": 3433,
      "mar": 3434,
      "ĠDis": 3435,
      "Ġexercise": 3436,
      "24": 3437,
      "Ġjo": 3438,
      "Ġaim": 3439,
      "Ġcold": 3440,
      "Ġdecision": 3441,
      "Ġcourt": 3442,
      "mitted": 3443,
      "ĠFin": 3444,
      "Ġcosts": 3445,
      "ĠTrans": 3446,
      "year": 3447,
      "Ġmention": 3448,
      "Ġformer": 3449,
      "Ġbacteria": 3450,
      "ster": 3451,
      "water": 3452,
      "Ġsurround": 3453,
      "Ġresponsible": 3454,
      "Ġ60": 3455,
      "Ġfile": 3456,
      "ĠUse": 3457,
      "ĠPark": 3458,
      "Ġconstit": 3459,
      "ovember": 3460,
      "Ġspeed": 3461,
      "Ġvill": 3462,
      "iece": 3463,
      "oe": 3464,
      "Ġder": 3465,
      "IT": 3466,
      "Ġcolon": 3467,
      "Wh": 3468,
      "Ġfuel": 3469,
      "Ġdevices": 3470,
      "Ġadults": 3471,
      "Ġdate": 3472,
      "Ġplanet": 3473,
      "Ġult": 3474,
      "Ġcontroll": 3475,
      "Ġefforts": 3476,
      "Ġconstruction": 3477,
      "ĠMexic": 3478,
      "Ġbeaut": 3479,
      "ĠGreat": 3480,
      "Ġsn": 3481,
      "iar": 3482,
      "Ġkill": 3483,
      "Ġeight": 3484,
      "Ġlocation": 3485,
      "Ġapprox": 3486,
      "Ġcontinued": 3487,
      "Ġtechniques": 3488,
      "Ġsustain": 3489,
      "uous": 3490,
      "ĠIS": 3491,
      "ĠAnother": 3492,
      "olar": 3493,
      "ogen": 3494,
      "Ġtrade": 3495,
      "ĠCommun": 3496,
      "ĠHigh": 3497,
      "inate": 3498,
      "AC": 3499,
      "Ġenjoy": 3500,
      "Ġapplications": 3501,
      "entially": 3502,
      "Ġbecomes": 3503,
      "ĠCity": 3504,
      "Ġdemand": 3505,
      "Ġfinancial": 3506,
      "reet": 3507,
      "Ġadapt": 3508,
      "come": 3509,
      "Ġpen": 3510,
      "Ġgold": 3511,
      "ĠProf": 3512,
      "Ġstru": 3513,
      "Ġexpected": 3514,
      "izes": 3515,
      "ĠOver": 3516,
      "Ġgives": 3517,
      "ĠJanuary": 3518,
      "ipl": 3519,
      "Ġanything": 3520,
      "Ġdiabetes": 3521,
      "odies": 3522,
      "Ġfruit": 3523,
      "Ġleaves": 3524,
      "ĠTechn": 3525,
      "Ġpan": 3526,
      "Ġwaste": 3527,
      "ĠEach": 3528,
      "Ġasked": 3529,
      "Ġten": 3530,
      "Ġbeyond": 3531,
      "ĠBi": 3532,
      "Ġreceive": 3533,
      "rition": 3534,
      "Ġden": 3535,
      "cles": 3536,
      "Ġ:": 3537,
      "Ġbeg": 3538,
      "Ġobjects": 3539,
      "head": 3540,
      "Ġcurrently": 3541,
      "Ġnamed": 3542,
      "Ġoccurs": 3543,
      "ests": 3544,
      "\",": 3545,
      "70": 3546,
      "idents": 3547,
      "equ": 3548,
      "Ġfit": 3549,
      "Ġgenetic": 3550,
      "ĠLet": 3551,
      "Ġrespond": 3552,
      "ĠConf": 3553,
      "Ġtesting": 3554,
      "Ġsmaller": 3555,
      "Ġnothing": 3556,
      "Ġforces": 3557,
      "Ġtit": 3558,
      "Ġcorn": 3559,
      "apter": 3560,
      "Ġscreen": 3561,
      "king": 3562,
      "Ġprojects": 3563,
      "airs": 3564,
      "Ġrain": 3565,
      "Ġexamples": 3566,
      "ĠSur": 3567,
      "Ġhous": 3568,
      "Ġtypically": 3569,
      "ding": 3570,
      "ĠSan": 3571,
      "Ġimportance": 3572,
      "Ġdepend": 3573,
      "Ġstrateg": 3574,
      "ĠInst": 3575,
      "ĠDecember": 3576,
      "Ġteacher": 3577,
      "Ġpet": 3578,
      "Ġinteresting": 3579,
      "Ġ22": 3580,
      "omb": 3581,
      "ĠJournal": 3582,
      "ED": 3583,
      "inated": 3584,
      "ĠWeb": 3585,
      "Ġmodels": 3586,
      "Ġadvant": 3587,
      "Ġautom": 3588,
      "rest": 3589,
      "Ġfollowed": 3590,
      "ĠVal": 3591,
      "lam": 3592,
      "roy": 3593,
      "Ġlegal": 3594,
      "Ġcommerc": 3595,
      "Ġsolution": 3596,
      "ĠOctober": 3597,
      "Ġfriends": 3598,
      "ĠDNA": 3599,
      "ixed": 3600,
      "Ġequipment": 3601,
      "Ġbillion": 3602,
      "cohol": 3603,
      "ky": 3604,
      "Ġfinal": 3605,
      "rees": 3606,
      "Ġeconomy": 3607,
      "itable": 3608,
      "Ġevolution": 3609,
      "Ġdevice": 3610,
      "aled": 3611,
      "ĠCur": 3612,
      "ype": 3613,
      "Ġdrugs": 3614,
      "Ġsett": 3615,
      "Ġcollection": 3616,
      "Ġweather": 3617,
      "Ġelectr": 3618,
      "ĠCour": 3619,
      "Ġcou": 3620,
      "Ġ193": 3621,
      "ĠPeople": 3622,
      "ondon": 3623,
      "ĠJust": 3624,
      "Ġcreating": 3625,
      "Ġhope": 3626,
      "Ġatmosp": 3627,
      "Ġtox": 3628,
      "ought": 3629,
      "ĠLaw": 3630,
      "ĠOnce": 3631,
      "ari": 3632,
      "Ġprocesses": 3633,
      "Ġcultural": 3634,
      "Ġmiddle": 3635,
      "atur": 3636,
      "Ġperhaps": 3637,
      "Ġhon": 3638,
      "Ġreasons": 3639,
      "Ġconflic": 3640,
      "oday": 3641,
      "Ġspirit": 3642,
      "men": 3643,
      "imal": 3644,
      "Ġfear": 3645,
      "Ġmolec": 3646,
      "Ġeverything": 3647,
      "ford": 3648,
      "ĠUnion": 3649,
      "Ġwrote": 3650,
      "Ġusers": 3651,
      "ĠVol": 3652,
      "Ġearlier": 3653,
      "uff": 3654,
      "Ġmonitor": 3655,
      "Ġplaced": 3656,
      "wor": 3657,
      "Â°": 3658,
      "ĠPublic": 3659,
      "Ġrules": 3660,
      "ĠThus": 3661,
      "ĠCongress": 3662,
      "Ġolder": 3663,
      "____": 3664,
      "Ġbenefit": 3665,
      "cial": 3666,
      "Ġball": 3667,
      "Ġrule": 3668,
      "ords": 3669,
      "ĠProt": 3670,
      "Ġeyes": 3671,
      "Ġbirds": 3672,
      "Ġeffort": 3673,
      "lin": 3674,
      "Ġoccup": 3675,
      "book": 3676,
      "ĠGeneral": 3677,
      "icate": 3678,
      "emy": 3679,
      "ĠNovember": 3680,
      "ĠPat": 3681,
      "Ġexposure": 3682,
      "Ġimag": 3683,
      "Ġwon": 3684,
      "Ġceleb": 3685,
      "Ġproviding": 3686,
      "ĠDavid": 3687,
      "Ġcompletely": 3688,
      "Ġarm": 3689,
      "Ġcitizens": 3690,
      "Ġalone": 3691,
      "fort": 3692,
      "Ġsch": 3693,
      "Ġdiscovered": 3694,
      "Ġswe": 3695,
      "Ġstage": 3696,
      "ĠEast": 3697,
      "Ġvisual": 3698,
      "ĠHouse": 3699,
      "ribute": 3700,
      "pir": 3701,
      "wide": 3702,
      "enty": 3703,
      "ĠEnvironment": 3704,
      "Ġrise": 3705,
      "Ġpredict": 3706,
      "Ġaffected": 3707,
      "Ġtherapy": 3708,
      "ingu": 3709,
      "sec": 3710,
      "Ġstandards": 3711,
      "Ġillust": 3712,
      "âĢĿ.": 3713,
      "Ġtrying": 3714,
      "Ġwoman": 3715,
      "Ġwinter": 3716,
      "St": 3717,
      "Ġconstant": 3718,
      "Ġuser": 3719,
      "Ġnames": 3720,
      "back": 3721,
      "Ġ+": 3722,
      "Ġconsequ": 3723,
      "ĠCoun": 3724,
      "Ġconver": 3725,
      "Ġscale": 3726,
      "Ġappears": 3727,
      "Ġhistorical": 3728,
      "house": 3729,
      "Ġinstru": 3730,
      "Ġcommonly": 3731,
      "Ġexec": 3732,
      "Ġformed": 3733,
      "Ġ2000": 3734,
      "encies": 3735,
      "Ġneigh": 3736,
      "Ġanti": 3737,
      "ĠBlack": 3738,
      "Ġcoming": 3739,
      "ev": 3740,
      "enge": 3741,
      "Ġrecommend": 3742,
      "ech": 3743,
      "Ġmiss": 3744,
      "Ġacqu": 3745,
      "ĠArch": 3746,
      "irection": 3747,
      "nes": 3748,
      "Ġgave": 3749,
      "edom": 3750,
      "rew": 3751,
      "odes": 3752,
      "ĠInter": 3753,
      "Ġorganization": 3754,
      "Ġ195": 3755,
      "Ġguid": 3756,
      "Ġdegree": 3757,
      "Ġmax": 3758,
      "Ġgene": 3759,
      "Ġ26": 3760,
      "90": 3761,
      "Ġassign": 3762,
      "Ġallowed": 3763,
      "oud": 3764,
      "oted": 3765,
      "ĠUnder": 3766,
      "Ġpoly": 3767,
      "Ġvirt": 3768,
      "Ġmeasures": 3769,
      "bl": 3770,
      "iples": 3771,
      "anish": 3772,
      "Ġdeal": 3773,
      "Ġmaintain": 3774,
      "orge": 3775,
      "ruary": 3776,
      "ocr": 3777,
      "Ġreports": 3778,
      "Ġapplied": 3779,
      "ĠChe": 3780,
      "Ġeveryone": 3781,
      "unch": 3782,
      "Ġmajority": 3783,
      "ĠSociety": 3784,
      "itch": 3785,
      "rieved": 3786,
      "Ġleave": 3787,
      "Ġfigure": 3788,
      "Ġsugar": 3789,
      "ero": 3790,
      "Ġchurch": 3791,
      "Ġprofessional": 3792,
      "Ġgoes": 3793,
      "Ġsteps": 3794,
      "load": 3795,
      "Ġfair": 3796,
      "resp": 3797,
      "Ġmember": 3798,
      "Ġrecords": 3799,
      "Ġidentified": 3800,
      "co": 3801,
      "aced": 3802,
      "Ġsuccessful": 3803,
      "Ġtrack": 3804,
      "Ġ2006": 3805,
      "Ġchanged": 3806,
      "ibly": 3807,
      "II": 3808,
      "can": 3809,
      "Ġversion": 3810,
      "Ġrepe": 3811,
      "Ġstatus": 3812,
      "EM": 3813,
      "27": 3814,
      "icip": 3815,
      "Ġfresh": 3816,
      "aint": 3817,
      "ellig": 3818,
      "ĠTheir": 3819,
      "Ġcompar": 3820,
      "Ġreduced": 3821,
      "Ġpractices": 3822,
      "Ġbehavi": 3823,
      "Ġâ": 3824,
      "Ġbreat": 3825,
      "Ġ28": 3826,
      "AL": 3827,
      "Ġrich": 3828,
      "Ġconstruct": 3829,
      "bur": 3830,
      "Ġmut": 3831,
      "Ġdigital": 3832,
      "Ġopportunity": 3833,
      "Ġpregn": 3834,
      "Ġ27": 3835,
      "Ġchoose": 3836,
      "EC": 3837,
      "off": 3838,
      "Ġwond": 3839,
      "Ġrob": 3840,
      "ĠAut": 3841,
      "craft": 3842,
      "Ġsymbol": 3843,
      "Ġdat": 3844,
      "lor": 3845,
      "Ġriver": 3846,
      "Ġrat": 3847,
      "Ġmag": 3848,
      "ĠSun": 3849,
      "Ġnuclear": 3850,
      "Ġpow": 3851,
      "ector": 3852,
      "ĠSpec": 3853,
      "ĠInternet": 3854,
      "Ġarchitect": 3855,
      "ĠFrance": 3856,
      "iable": 3857,
      "Ġeating": 3858,
      "ĠRel": 3859,
      "Ġpicture": 3860,
      "Ġexpand": 3861,
      "Ġequal": 3862,
      "ara": 3863,
      "Ġstar": 3864,
      "Ġdifferences": 3865,
      "Ġveh": 3866,
      "ulf": 3867,
      "Ġcapacity": 3868,
      "Ġtou": 3869,
      "Ġarri": 3870,
      "inese": 3871,
      "rief": 3872,
      "ĠGreen": 3873,
      "hemat": 3874,
      "ĠPal": 3875,
      "Ġdistance": 3876,
      "related": 3877,
      "Ġrelatively": 3878,
      "ĠProgram": 3879,
      "uit": 3880,
      "ĠRoman": 3881,
      "ĠAssociation": 3882,
      "Ġeffic": 3883,
      "ĠJames": 3884,
      "Ġnote": 3885,
      "ĠStudents": 3886,
      "ĠMich": 3887,
      "Ġvia": 3888,
      "que": 3889,
      "ession": 3890,
      "Ġcru": 3891,
      "uls": 3892,
      "ĠOb": 3893,
      "con": 3894,
      "Ġlegis": 3895,
      "Ġcateg": 3896,
      "ĠLondon": 3897,
      "Ġspring": 3898,
      "Ġbra": 3899,
      "Ġtransfer": 3900,
      "more": 3901,
      "Ġfunctions": 3902,
      "29": 3903,
      "ocks": 3904,
      "ĠTex": 3905,
      "ĠAng": 3906,
      "iful": 3907,
      "Ġpurch": 3908,
      "Ġarr": 3909,
      "Ġcook": 3910,
      "phas": 3911,
      "Ġblue": 3912,
      "Ġpp": 3913,
      "Ġmap": 3914,
      "Ġdisplay": 3915,
      "ĠUN": 3916,
      "Ġpeace": 3917,
      "Ġregions": 3918,
      "pped": 3919,
      "26": 3920,
      "Ġpiece": 3921,
      "known": 3922,
      "ĠAustralia": 3923,
      "enth": 3924,
      "ament": 3925,
      "udd": 3926,
      "iny": 3927,
      "Ġcra": 3928,
      "Ġexperim": 3929,
      "time": 3930,
      "Ġlimit": 3931,
      "Ġstrength": 3932,
      "ĠLat": 3933,
      "Ġtele": 3934,
      "Ġpresence": 3935,
      "Ġforeign": 3936,
      "Ġchoice": 3937,
      "iences": 3938,
      "gery": 3939,
      "Ġcommercial": 3940,
      "Ġnative": 3941,
      "Ġcontext": 3942,
      "Ġbound": 3943,
      "amer": 3944,
      "wards": 3945,
      "oration": 3946,
      "ĠToday": 3947,
      "tee": 3948,
      "ald": 3949,
      "Ġenh": 3950,
      "Ġproperties": 3951,
      "ĠTH": 3952,
      "Ġmob": 3953,
      "tery": 3954,
      "Ġshape": 3955,
      "Ġshowed": 3956,
      "Ġpassed": 3957,
      "Ġbelieved": 3958,
      "semb": 3959,
      "Ġmis": 3960,
      "ĠMor": 3961,
      "Ġyourself": 3962,
      "Ġbelief": 3963,
      "Ġhom": 3964,
      "Ġfully": 3965,
      "aste": 3966,
      "Ġoffers": 3967,
      "Ġworked": 3968,
      "Ġapproximately": 3969,
      "Ġexisting": 3970,
      "Ġenter": 3971,
      "Ġroad": 3972,
      "Ġpatterns": 3973,
      "igr": 3974,
      "Ġcry": 3975,
      "Ġ2005": 3976,
      "Ġdidn": 3977,
      "ĠFebruary": 3978,
      "ĠAv": 3979,
      "opy": 3980,
      "che": 3981,
      "ners": 3982,
      "Ġiniti": 3983,
      "ees": 3984,
      "orial": 3985,
      "Ġincor": 3986,
      "ensity": 3987,
      "Ġimmune": 3988,
      "ken": 3989,
      "Ġefficient": 3990,
      "ĠChildren": 3991,
      "Ġfavor": 3992,
      "ĠDon": 3993,
      "Ġsusp": 3994,
      "force": 3995,
      "ĠGovernment": 3996,
      "ĠSub": 3997,
      "iant": 3998,
      "Ġemissions": 3999,
      "Ġ#": 4000,
      "Ġelement": 4001,
      "asion": 4002,
      "Ġstories": 4003,
      "Ġsurvey": 4004,
      "ĠRo": 4005,
      "Ġfamous": 4006,
      "Ġillness": 4007,
      "Ġoverall": 4008,
      "ĠNAS": 4009,
      "Ġworth": 4010,
      "rupt": 4011,
      "Ġpowerful": 4012,
      "ographic": 4013,
      "Ġstream": 4014,
      "gypt": 4015,
      "Ġfilm": 4016,
      "Ġdirection": 4017,
      "Ġeducational": 4018,
      "Ġinstance": 4019,
      "Ġsuggests": 4020,
      "Ġisn": 4021,
      "Ġfactor": 4022,
      "Ġfert": 4023,
      "DA": 4024,
      "Ġbox": 4025,
      "ĠMic": 4026,
      "Ġcopy": 4027,
      "ĠDec": 4028,
      "ĠThom": 4029,
      "ĠChinese": 4030,
      "Ġassist": 4031,
      "Ġacad": 4032,
      "Ġbran": 4033,
      "Ġunit": 4034,
      "Ġfindings": 4035,
      "pire": 4036,
      "Ġoffice": 4037,
      "ĠGermany": 4038,
      "Ġinsect": 4039,
      "Ġincreases": 4040,
      "Ġthousands": 4041,
      "Ġinform": 4042,
      "ĠRetrieved": 4043,
      "Ġchance": 4044,
      "Ġrot": 4045,
      "Ġconnect": 4046,
      "28": 4047,
      "ĠPaul": 4048,
      "ocol": 4049,
      "orage": 4050,
      "Ġalcohol": 4051,
      "ĠBra": 4052,
      "Ġremember": 4053,
      "Ġdestroy": 4054,
      "Ġhair": 4055,
      "Ġdefined": 4056,
      "Ġsitu": 4057,
      "Ġbaby": 4058,
      "Ġreserv": 4059,
      "Ġpresident": 4060,
      "Ġwatch": 4061,
      "rehens": 4062,
      "Ġseparate": 4063,
      "ologist": 4064,
      "Ġ190": 4065,
      "ternal": 4066,
      "ĠPlan": 4067,
      "Ġcontract": 4068,
      "Ġplans": 4069,
      "ilosoph": 4070,
      "cast": 4071,
      "ĠDes": 4072,
      "rec": 4073,
      "Ġmer": 4074,
      "Ġsac": 4075,
      "Ġseven": 4076,
      "Ġapply": 4077,
      "Ġqual": 4078,
      "Ġpresented": 4079,
      "hors": 4080,
      "Ġmoving": 4081,
      "Ġdetails": 4082,
      "Ġbottom": 4083,
      "pat": 4084,
      "Ġvo": 4085,
      "Ġ2004": 4086,
      "ĠHuman": 4087,
      "Ġreleased": 4088,
      "ĠColle": 4089,
      "Ġactions": 4090,
      "ĠJews": 4091,
      "igen": 4092,
      "Ġperfect": 4093,
      "Ġtechnologies": 4094,
      "bed": 4095,
      "osy": 4096,
      "Ġgiving": 4097,
      "ĠFound": 4098,
      "Ġprice": 4099,
      "Ġcarried": 4100,
      "Ġtrib": 4101,
      "Ġbank": 4102,
      "Ġdisorders": 4103,
      "Ġteach": 4104,
      "Ġstyle": 4105,
      "Ġexhib": 4106,
      "Ġevalu": 4107,
      "Ġmoment": 4108,
      "ider": 4109,
      "Ġresource": 4110,
      "Ġexplain": 4111,
      "ĠFood": 4112,
      "pan": 4113,
      "Ġpopulations": 4114,
      "Ġleaders": 4115,
      "Ġstaff": 4116,
      "Ġabsor": 4117,
      "Ġfemale": 4118,
      "Ġgarden": 4119,
      "ida": 4120,
      "igure": 4121,
      "abilities": 4122,
      "ss": 4123,
      "ĠEvery": 4124,
      "Ġrelease": 4125,
      "ĠTexas": 4126,
      "part": 4127,
      "Ġrunning": 4128,
      "Ġhuge": 4129,
      "ifically": 4130,
      "Ġletter": 4131,
      "ĠEgypt": 4132,
      "Ġdivid": 4133,
      "ĠWestern": 4134,
      "Ġmal": 4135,
      "Ġforward": 4136,
      "Ġorganic": 4137,
      "Ġwrong": 4138,
      "Ġjournal": 4139,
      "Ġtemperatures": 4140,
      "ĠNet": 4141,
      "Ġeventually": 4142,
      "Ġesc": 4143,
      "erate": 4144,
      "Ġspect": 4145,
      "Ġing": 4146,
      "ĠRev": 4147,
      "ĠPhil": 4148,
      "ĠTwo": 4149,
      "ocal": 4150,
      "Ġobserved": 4151,
      "Ġaccur": 4152,
      "order": 4153,
      "Ġgir": 4154,
      "ĠRich": 4155,
      "Ġfriend": 4156,
      "rations": 4157,
      "ĠMat": 4158,
      "Ġsigns": 4159,
      "apers": 4160,
      "Ġtrend": 4161,
      "eding": 4162,
      "Ġcollabor": 4163,
      "aur": 4164,
      "och": 4165,
      "ygen": 4166,
      "ĠMr": 4167,
      "Ġattract": 4168,
      "Ġgraph": 4169,
      "Ġdistribution": 4170,
      "rog": 4171,
      "uses": 4172,
      "ĠCouncil": 4173,
      "ĠST": 4174,
      "Ġorganizations": 4175,
      "Ġdecades": 4176,
      "ĠDevelopment": 4177,
      "ĠTest": 4178,
      "Ġclassroom": 4179,
      "ĠMary": 4180,
      "Ġconducted": 4181,
      "Ġarticles": 4182,
      "Ġstructures": 4183,
      "Ġ...": 4184,
      "Ġnutri": 4185,
      "Ġinnov": 4186,
      "ĠHen": 4187,
      "Ġopin": 4188,
      "33": 4189,
      "ĠMiss": 4190,
      "ĠDi": 4191,
      "pris": 4192,
      "ste": 4193,
      "Ġactual": 4194,
      "Ġ186": 4195,
      "ĠGreek": 4196,
      "Ġslight": 4197,
      "ĠNASA": 4198,
      "Ch": 4199,
      "ĠOrgan": 4200,
      "cious": 4201,
      "Ġanx": 4202,
      "ĠMuseum": 4203,
      "Ġinstruct": 4204,
      "Ġvary": 4205,
      "Ġheavy": 4206,
      "ĠHIV": 4207,
      "Ġcycle": 4208,
      "ĠAir": 4209,
      "Ġstrugg": 4210,
      "Ġmission": 4211,
      "ĠGeorge": 4212,
      "ĠWork": 4213,
      "Ġassum": 4214,
      "Ġreference": 4215,
      "Ġliterature": 4216,
      "antic": 4217,
      "Ġimmediately": 4218,
      "aign": 4219,
      "Ġcontrast": 4220,
      "Ġextremely": 4221,
      "Ġcombination": 4222,
      "Ġdim": 4223,
      "Ġhighest": 4224,
      "Ġconvers": 4225,
      "Ġliqu": 4226,
      "Ġfeature": 4227,
      "rome": 4228,
      "ĠOff": 4229,
      "Ġ29": 4230,
      "Ġcities": 4231,
      "ĠSam": 4232,
      "hetic": 4233,
      "Ġkid": 4234,
      "Ġtruth": 4235,
      "ĠMal": 4236,
      "ĠRober": 4237,
      "Ġnotes": 4238,
      "Ġserve": 4239,
      "Ġinh": 4240,
      "Ġestimated": 4241,
      "Ġalternative": 4242,
      "ĠMount": 4243,
      "Ġtask": 4244,
      "Ġnumerous": 4245,
      "iance": 4246,
      "uing": 4247,
      "Ġves": 4248,
      "respond": 4249,
      "Ġocean": 4250,
      "ĠRepublic": 4251,
      "rane": 4252,
      "Ġtissue": 4253,
      "Ġ<": 4254,
      "Ġneu": 4255,
      "orms": 4256,
      "stitution": 4257,
      "Ġmoved": 4258,
      "Ġantib": 4259,
      "unction": 4260,
      "ago": 4261,
      "Ġdoub": 4262,
      "porary": 4263,
      "Ġturned": 4264,
      "Ġgrant": 4265,
      "Ġtim": 4266,
      "Ġphen": 4267,
      "Ġmo": 4268,
      "Ġiron": 4269,
      "AM": 4270,
      "iate": 4271,
      "erences": 4272,
      "Ġclearly": 4273,
      "Ġradio": 4274,
      "ĠCollege": 4275,
      "Ġincome": 4276,
      "Ġintroduced": 4277,
      "ogle": 4278,
      "Ġfields": 4279,
      "ĠPort": 4280,
      "Ġrequirements": 4281,
      "ĠSocial": 4282,
      "Ġopportunities": 4283,
      "Ġmachine": 4284,
      "Ġelectricity": 4285,
      "Ġpersons": 4286,
      "ĠTur": 4287,
      "Ġlived": 4288,
      "ĠDem": 4289,
      "Ġexperiment": 4290,
      "Ġreality": 4291,
      "Ġign": 4292,
      "key": 4293,
      "Ġcomponents": 4294,
      "Ġclinical": 4295,
      "ST": 4296,
      "Ġalt": 4297,
      "Ġconv": 4298,
      "Ġdisorder": 4299,
      "uild": 4300,
      "Ġgeneration": 4301,
      "Ġindustrial": 4302,
      "Ġvitamin": 4303,
      "Ġround": 4304,
      "Ġstore": 4305,
      "Ġspeech": 4306,
      "35": 4307,
      "ĠEv": 4308,
      "Ġboard": 4309,
      "Ġ80": 4310,
      "Ġbreast": 4311,
      "Ġconsumption": 4312,
      "Ġmeat": 4313,
      "Ġstrategies": 4314,
      "Ġdram": 4315,
      "roph": 4316,
      "ĠService": 4317,
      "Ġweak": 4318,
      "ET": 4319,
      "ares": 4320,
      "Ġfrequently": 4321,
      "Ġoperations": 4322,
      "Ġsexual": 4323,
      "Ġgenes": 4324,
      "Ġ2003": 4325,
      "ĠTherefore": 4326,
      "Ġbodies": 4327,
      "Ġcovered": 4328,
      "Ġperformed": 4329,
      "Ġdyn": 4330,
      "Ġmilk": 4331,
      "ĠMars": 4332,
      "ously": 4333,
      "Ġsignificantly": 4334,
      "ĠIts": 4335,
      "Ġpick": 4336,
      "Ġship": 4337,
      "Ġexplore": 4338,
      "Ġemphas": 4339,
      "Ġcoal": 4340,
      "Ġhappen": 4341,
      "Ġoptions": 4342,
      "ĠCourt": 4343,
      "ias": 4344,
      "Ġfaith": 4345,
      "rick": 4346,
      "ĠVirgin": 4347,
      "Ġstim": 4348,
      "Ġkilled": 4349,
      "Ġagg": 4350,
      "Ġindependent": 4351,
      "Ġmouth": 4352,
      "ĠCath": 4353,
      "Ġterrit": 4354,
      "eces": 4355,
      "Ġchallenges": 4356,
      "Ġresistance": 4357,
      "Ġteeth": 4358,
      "ĠArab": 4359,
      "ologists": 4360,
      "Ġwhom": 4361,
      "iox": 4362,
      "Ġmessage": 4363,
      "oma": 4364,
      "Ġcand": 4365,
      "Ġexcess": 4366,
      "ĠPost": 4367,
      "Ġwidely": 4368,
      "ĠFore": 4369,
      "Ġlearned": 4370,
      "Ġreb": 4371,
      "ĠFurther": 4372,
      "Ġtreated": 4373,
      "ĠSen": 4374,
      "tical": 4375,
      "Ġdetermined": 4376,
      "Ġplastic": 4377,
      "ĠUK": 4378,
      "ingly": 4379,
      "Ġitems": 4380,
      "iding": 4381,
      "Ġexperiences": 4382,
      "nic": 4383,
      "Ġdogs": 4384,
      "Ġwaters": 4385,
      "Ġnor": 4386,
      "Ġparty": 4387,
      "Ġcredit": 4388,
      "Ġsouthern": 4389,
      "anging": 4390,
      "Ġeasier": 4391,
      "Ġfailure": 4392,
      "rosc": 4393,
      "lick": 4394,
      "Ġdrive": 4395,
      "Ġnorthern": 4396,
      "Ġmedicine": 4397,
      "Ġconnection": 4398,
      "ĠProject": 4399,
      "onic": 4400,
      "ube": 4401,
      "Ġbuildings": 4402,
      "Ġguide": 4403,
      "olved": 4404,
      "Ġsyn": 4405,
      "Ġbackground": 4406,
      "Ġmale": 4407,
      "char": 4408,
      "Ġfinding": 4409,
      "Ġplanning": 4410,
      "Ġgain": 4411,
      "iring": 4412,
      "ĠBoth": 4413,
      "Ġdiscussion": 4414,
      "ĠSecond": 4415,
      "ĠDirect": 4416,
      "Ġnoted": 4417,
      "RO": 4418,
      "clus": 4419,
      "Ġjoint": 4420,
      "Ġsave": 4421,
      "Ġflood": 4422,
      "Ġperspect": 4423,
      "Ġelim": 4424,
      "Ġwest": 4425,
      "ander": 4426,
      "ortion": 4427,
      "Ġrace": 4428,
      "Ġunivers": 4429,
      "Ġgod": 4430,
      "Ġbelong": 4431,
      "Ġconnected": 4432,
      "rm": 4433,
      "othes": 4434,
      "Ġreprodu": 4435,
      "ĠIsland": 4436,
      "Ġtransl": 4437,
      "Ġcreation": 4438,
      "Ġvision": 4439,
      "SA": 4440,
      "ĠNews": 4441,
      "elines": 4442,
      "Ġdistinct": 4443,
      "Ġoxygen": 4444,
      "Ġbalance": 4445,
      "Ġbecoming": 4446,
      "ĠBro": 4447,
      "Ġgets": 4448,
      "Ġminor": 4449,
      "Ġinitial": 4450,
      "Ġsolid": 4451,
      "ager": 4452,
      "Ġchallenge": 4453,
      "zz": 4454,
      "Ġnovel": 4455,
      "ĠAbout": 4456,
      "Ġreached": 4457,
      "Ġhear": 4458,
      "Ġstorage": 4459,
      "ception": 4460,
      "Ġreferred": 4461,
      "Ġtoxic": 4462,
      "atically": 4463,
      "Ġhospital": 4464,
      "uration": 4465,
      "ĠGra": 4466,
      "Ġprefer": 4467,
      "Ġinternal": 4468,
      "Ġmetal": 4469,
      "raction": 4470,
      "75": 4471,
      "Ġupper": 4472,
      "ĠLike": 4473,
      "Ġthick": 4474,
      "met": 4475,
      "Ġpal": 4476,
      "icial": 4477,
      "Ġsand": 4478,
      "ĠLife": 4479,
      "ĠUsing": 4480,
      "Ġgames": 4481,
      "ĠWhite": 4482,
      "ieties": 4483,
      "Ġlayer": 4484,
      "ĠMark": 4485,
      "olid": 4486,
      "Ġoutput": 4487,
      "Ġutil": 4488,
      "Ġradiation": 4489,
      "lease": 4490,
      "Ġrul": 4491,
      "Ġparticipants": 4492,
      "Ġexposed": 4493,
      "Ġatmosphere": 4494,
      "45": 4495,
      "Ġcris": 4496,
      "Ġcharacteristics": 4497,
      "Ġcausing": 4498,
      "lamm": 4499,
      "Ġdegrees": 4500,
      "Ġglass": 4501,
      "Ġload": 4502,
      "Ġpolicies": 4503,
      "Ġbattle": 4504,
      "Ġrecommended": 4505,
      "Ġassessment": 4506,
      "otes": 4507,
      "ij": 4508,
      "Ġded": 4509,
      "ĠJapanese": 4510,
      "ressed": 4511,
      "cers": 4512,
      "Ġserved": 4513,
      "Ġcorrespond": 4514,
      "ped": 4515,
      "amental": 4516,
      "illing": 4517,
      "Ġchanging": 4518,
      "ĠBas": 4519,
      "Ġ2001": 4520,
      "Ġauthors": 4521,
      "Ġdatab": 4522,
      "Ġvessel": 4523,
      "Ġgoals": 4524,
      "Ġdecisions": 4525,
      "aped": 4526,
      "Ġbuy": 4527,
      "Ġfreedom": 4528,
      "ĠDef": 4529,
      "Ġunf": 4530,
      "Ġsample": 4531,
      "78": 4532,
      "Ġintellig": 4533,
      "ressive": 4534,
      "Ġmostly": 4535,
      "Ġexpression": 4536,
      "Ġready": 4537,
      "Ġwanted": 4538,
      "ĠCle": 4539,
      "ĠLou": 4540,
      "ĠUp": 4541,
      "Ġpric": 4542,
      "Ġsort": 4543,
      "Ġemail": 4544,
      "Ġclasses": 4545,
      "ĠPhys": 4546,
      "Ġexactly": 4547,
      "Ġdepression": 4548,
      "iveness": 4549,
      "Ġfarmers": 4550,
      "Ġbone": 4551,
      "ĠLa": 4552,
      "isation": 4553,
      "Ġscen": 4554,
      "ĠIslam": 4555,
      "Ġvictim": 4556,
      "Ġdesp": 4557,
      "Ġdetect": 4558,
      "Ġexpert": 4559,
      "ributed": 4560,
      "ĠEnergy": 4561,
      "Ġcollege": 4562,
      "care": 4563,
      "urance": 4564,
      "Ġresulting": 4565,
      "Ġannual": 4566,
      "ĠSal": 4567,
      "ĠCivil": 4568,
      "Ġ90": 4569,
      "ĠThomas": 4570,
      "ĠMet": 4571,
      "'ve": 4572,
      "Ġmel": 4573,
      "Ġvolunt": 4574,
      "riage": 4575,
      "Ġsquare": 4576,
      "ĠMexico": 4577,
      "ĠProfess": 4578,
      "yd": 4579,
      "Ġdie": 4580,
      "Ġinfections": 4581,
      "Ġ35": 4582,
      "cont": 4583,
      "ios": 4584,
      "Ġhomes": 4585,
      "acific": 4586,
      "RE": 4587,
      "ference": 4588,
      "Ġfine": 4589,
      "change": 4590,
      "Ġchronic": 4591,
      "Ġdescribe": 4592,
      "Ġburn": 4593,
      "ulating": 4594,
      "ĠBel": 4595,
      "ĠElect": 4596,
      "âĢĿ,": 4597,
      "Ġrelationships": 4598,
      "Ġseed": 4599,
      "Ġsav": 4600,
      "Ġcast": 4601,
      "Ġbrother": 4602,
      "west": 4603,
      "Ġtrou": 4604,
      "Ġanyone": 4605,
      "Ġinvolve": 4606,
      "ĠInformation": 4607,
      "Ġprepared": 4608,
      "ĠRem": 4609,
      "Ġexperts": 4610,
      "Ġprofessor": 4611,
      "ĠAcad": 4612,
      "Ġaspects": 4613,
      "36": 4614,
      "leg": 4615,
      "Ġremoved": 4616,
      "Ġpip": 4617,
      "ado": 4618,
      "Ġbeautiful": 4619,
      "ructure": 4620,
      "Ġregarding": 4621,
      "'ll": 4622,
      "Ġcere": 4623,
      "Ġcoord": 4624,
      "Ġlandsc": 4625,
      "Ġcounter": 4626,
      "Ġmentioned": 4627,
      "Ġtum": 4628,
      "ĠMass": 4629,
      "Ġprepar": 4630,
      "works": 4631,
      "za": 4632,
      "ilit": 4633,
      "Ġisland": 4634,
      "ams": 4635,
      "Ġremained": 4636,
      "well": 4637,
      "Ġisol": 4638,
      "Ġ70": 4639,
      "Ġproposed": 4640,
      "Ġpreviously": 4641,
      "Ġtechnique": 4642,
      "Ġphysic": 4643,
      "mark": 4644,
      "Ġinput": 4645,
      "Ġhorm": 4646,
      "ĠScient": 4647,
      "isher": 4648,
      "rum": 4649,
      "ĠMem": 4650,
      "Ġsurgery": 4651,
      "Ġmeeting": 4652,
      "Ġmuscle": 4653,
      "Ġstarting": 4654,
      "Ġpages": 4655,
      "ĠMart": 4656,
      "ĠHel": 4657,
      "Ġhour": 4658,
      "oting": 4659,
      "Ġupd": 4660,
      "ux": 4661,
      "Ġsem": 4662,
      "alled": 4663,
      "oyal": 4664,
      "Ġinvolves": 4665,
      "Ġkept": 4666,
      "Ġhousehold": 4667,
      "Ġclick": 4668,
      "Ġeast": 4669,
      "ĠAtl": 4670,
      "Ġvolume": 4671,
      "Ġdrop": 4672,
      "ĠFlor": 4673,
      "Ġdecided": 4674,
      "raw": 4675,
      "Ġtrig": 4676,
      "Ġfinally": 4677,
      "ieces": 4678,
      "atric": 4679,
      "Ġquar": 4680,
      "Ġpret": 4681,
      "Ġplease": 4682,
      "Ġsong": 4683,
      "uted": 4684,
      "ishing": 4685,
      "Ġphase": 4686,
      "Ġurban": 4687,
      "Ġinterpret": 4688,
      "ulum": 4689,
      "umn": 4690,
      "Ġhop": 4691,
      "Ġheard": 4692,
      "wood": 4693,
      "Ġtopic": 4694,
      "ixt": 4695,
      "Ġsaying": 4696,
      "ĠCentral": 4697,
      "ĠIr": 4698,
      "Ġnutrition": 4699,
      "ĠBen": 4700,
      "Ġengineering": 4701,
      "ĠBer": 4702,
      "Ġconfirm": 4703,
      "ĠMuslim": 4704,
      "ĠSom": 4705,
      "ĠBook": 4706,
      "ĠLord": 4707,
      "Ġconclud": 4708,
      "ĠStep": 4709,
      "Ġheight": 4710,
      "Ġspent": 4711,
      "ria": 4712,
      "Ġstatement": 4713,
      "Ġadvantage": 4714,
      "Ġdro": 4715,
      "ĠCommission": 4716,
      "Ġexperienced": 4717,
      "Ġfol": 4718,
      "ĠSpanish": 4719,
      "Ġproperly": 4720,
      "Ġchemicals": 4721,
      "Ġvaccine": 4722,
      "rows": 4723,
      "ognitive": 4724,
      "Ġeggs": 4725,
      "Ġoccurred": 4726,
      "Ġencourage": 4727,
      "Ġbill": 4728,
      "Ġhelped": 4729,
      "Ġfiles": 4730,
      "Ġincorpor": 4731,
      "berg": 4732,
      "Ġcharge": 4733,
      "mp": 4734,
      "ndrome": 4735,
      "Ġkn": 4736,
      "ĠAsia": 4737,
      "Ġreducing": 4738,
      "Ġbed": 4739,
      "ensus": 4740,
      "Ġinvent": 4741,
      "Ġsetting": 4742,
      "Ġpun": 4743,
      "ĠOld": 4744,
      "Ġcomprehens": 4745,
      "mat": 4746,
      "Ġcompleted": 4747,
      "Ġefficiency": 4748,
      "ded": 4749,
      "Ġbud": 4750,
      "Ġ1990": 4751,
      "Ġprofession": 4752,
      "Ġreligion": 4753,
      "ault": 4754,
      "ĠPri": 4755,
      "Ġsynt": 4756,
      "ĠTreat": 4757,
      "Ġemergency": 4758,
      "ĠDist": 4759,
      "ĠJe": 4760,
      "Ġjour": 4761,
      "ĠSer": 4762,
      "Ġelectrical": 4763,
      "Ġinterested": 4764,
      "Ġconservation": 4765,
      "Ġpolice": 4766,
      "Ġpromote": 4767,
      "aughter": 4768,
      "Ġexcell": 4769,
      "Ġspot": 4770,
      "ĠMedicine": 4771,
      "Ġadvanced": 4772,
      "Ġmanufacture": 4773,
      "gl": 4774,
      "Ġdangerous": 4775,
      "Ġreturned": 4776,
      "Ġadjust": 4777,
      "ett": 4778,
      "astern": 4779,
      "Ġforced": 4780,
      "Ġremove": 4781,
      "Ġconflict": 4782,
      "zing": 4783,
      "Ġagricultural": 4784,
      "Ġmeant": 4785,
      "Ġletters": 4786,
      "Ġcampaign": 4787,
      "Ġ2002": 4788,
      "ctic": 4789,
      "ĠClass": 4790,
      "ĠCD": 4791,
      "igration": 4792,
      "Ġinstitutions": 4793,
      "Ġnit": 4794,
      "ortunately": 4795,
      "Ġlic": 4796,
      "Ġban": 4797,
      "win": 4798,
      "Ġaid": 4799,
      "Ġoption": 4800,
      "What": 4801,
      "Ġdisp": 4802,
      "Ġidentity": 4803,
      "ĠFranc": 4804,
      "nel": 4805,
      "Ġdefic": 4806,
      "Ġgrass": 4807,
      "Ġreplace": 4808,
      "Ġhappens": 4809,
      "ormally": 4810,
      "Ġobvious": 4811,
      "ĠHenry": 4812,
      "Ġamounts": 4813,
      "osen": 4814,
      "Ġdepending": 4815,
      "Ġmathemat": 4816,
      "onomic": 4817,
      "ii": 4818,
      "olute": 4819,
      "Ġyouth": 4820,
      "ĠHistor": 4821,
      "su": 4822,
      "Ġcomment": 4823,
      "ĠAny": 4824,
      "rete": 4825,
      "ĠBay": 4826,
      "poses": 4827,
      "Ġyellow": 4828,
      "ĠOp": 4829,
      "ĠWell": 4830,
      "Ġraised": 4831,
      "Ġsettle": 4832,
      "Ġprinciples": 4833,
      "Ġfoss": 4834,
      "Ġeffectively": 4835,
      "ĠMedical": 4836,
      "Ġcircum": 4837,
      "iated": 4838,
      "Ġbegins": 4839,
      "ishes": 4840,
      "ĠIP": 4841,
      "Ġseeds": 4842,
      "yt": 4843,
      "ĠDisc": 4844,
      "Ġplat": 4845,
      "Ġgrand": 4846,
      "Ġprocessing": 4847,
      "iling": 4848,
      "ĠSpace": 4849,
      "Ġrisks": 4850,
      "Ġauthority": 4851,
      "CC": 4852,
      "ht": 4853,
      "ville": 4854,
      "Ġstation": 4855,
      "Ġ>": 4856,
      "Ġlung": 4857,
      "Ġextent": 4858,
      "Ġreaction": 4859,
      "ping": 4860,
      "vert": 4861,
      "ĠWind": 4862,
      "Ġmotor": 4863,
      "Ġanxiety": 4864,
      "ĠRobert": 4865,
      "name": 4866,
      "ĠMil": 4867,
      "ĠFre": 4868,
      "Ġconcerns": 4869,
      "Ġlinks": 4870,
      "ĠWomen": 4871,
      "Ġcareer": 4872,
      "ifying": 4873,
      "EL": 4874,
      "Ġsufficient": 4875,
      "Ġlinked": 4876,
      "itz": 4877,
      "Ġtransform": 4878,
      "Ġ185": 4879,
      "med": 4880,
      "vision": 4881,
      "amic": 4882,
      "ĠPacific": 4883,
      "38": 4884,
      "ras": 4885,
      "Ġcontinues": 4886,
      "iverse": 4887,
      "Ġleads": 4888,
      "Ġpollution": 4889,
      "ĠJer": 4890,
      "Ġmainly": 4891,
      "Ġrelevant": 4892,
      "cript": 4893,
      "ounced": 4894,
      "OT": 4895,
      "lers": 4896,
      "Ġstars": 4897,
      "ĠLibrary": 4898,
      "Ġlargely": 4899,
      "Ġconcern": 4900,
      "Ġfrequency": 4901,
      "li": 4902,
      "Ġdoll": 4903,
      "Ġdefinition": 4904,
      "Ġappeared": 4905,
      "osystem": 4906,
      "Ġmist": 4907,
      "Ġhur": 4908,
      "Ġwestern": 4909,
      "Ġdiscover": 4910,
      "Ġsed": 4911,
      "Ġsecret": 4912,
      "Ġprimarily": 4913,
      "Ġbrief": 4914,
      "Ġindicate": 4915,
      "Ġsupported": 4916,
      "rence": 4917,
      "inating": 4918,
      "standing": 4919,
      "Ġwarming": 4920,
      "ĠLatin": 4921,
      "Ġwealth": 4922,
      "Ġperman": 4923,
      "Ġfeeling": 4924,
      "do": 4925,
      "bal": 4926,
      "Ġarmy": 4927,
      "Ġroot": 4928,
      "itors": 4929,
      "ĠWil": 4930,
      "ĠSk": 4931,
      "Ġhearing": 4932,
      "Ġoperation": 4933,
      "no": 4934,
      "Ġtrust": 4935,
      "Ġpil": 4936,
      "ĠEnvironmental": 4937,
      "des": 4938,
      "Ġvent": 4939,
      "Ġdiss": 4940,
      "Ġunits": 4941,
      "Ġsamples": 4942,
      "Ġacademic": 4943,
      "Ġliquid": 4944,
      "ĠExpl": 4945,
      "Ġimproved": 4946,
      "Ġhit": 4947,
      "Ġfacilities": 4948,
      "Ġtour": 4949,
      "Ġmanner": 4950,
      "Ġtrial": 4951,
      "Ġexistence": 4952,
      "ancing": 4953,
      "roc": 4954,
      "ĠSl": 4955,
      "Ġchief": 4956,
      "Ġflowers": 4957,
      "Ġresponsibility": 4958,
      "Ġsalt": 4959,
      "ĠGroup": 4960,
      "ĠFam": 4961,
      "rant": 4962,
      "ya": 4963,
      "Ġwife": 4964,
      "ĠAp": 4965,
      "ĠDise": 4966,
      "unk": 4967,
      "Ġcombined": 4968,
      "RI": 4969,
      "Ġcontaining": 4970,
      "ĠArmy": 4971,
      "Ġimmun": 4972,
      "Ġkil": 4973,
      "Ġvegetables": 4974,
      "inf": 4975,
      "eline": 4976,
      "Ġclos": 4977,
      "Ġcenturies": 4978,
      "ĠTHE": 4979,
      "iology": 4980,
      "uable": 4981,
      "Ġintended": 4982,
      "100": 4983,
      "Ġstudied": 4984,
      "Ġlooks": 4985,
      "ĠOut": 4986,
      "Ġmorning": 4987,
      "Ġofficials": 4988,
      "Ġphenomen": 4989,
      "Ġfloor": 4990,
      "ola": 4991,
      "Ġphilosoph": 4992,
      "ml": 4993,
      "Ġfort": 4994,
      "Ġtechnical": 4995,
      "ĠCharles": 4996,
      "Ġbright": 4997,
      "Ġrenew": 4998,
      "ĠCommon": 4999,
      "Ġlib": 5000,
      "ague": 5001,
      "Ġgrade": 5002,
      "Ġrecorded": 5003,
      "Ġjobs": 5004,
      "Ġappoint": 5005,
      "Ġprison": 5006,
      "Ġrequest": 5007,
      "ĠVirginia": 5008,
      "Ġpieces": 5009,
      "ample": 5010,
      "igation": 5011,
      "ĠLand": 5012,
      "Ġviolence": 5013,
      "akers": 5014,
      "inent": 5015,
      "alle": 5016,
      "Ġmotion": 5017,
      "Ġmaximum": 5018,
      "39": 5019,
      "gal": 5020,
      ".|": 5021,
      "acters": 5022,
      "Ġ189": 5023,
      "what": 5024,
      "Ġdiagnosis": 5025,
      "Ġapparent": 5026,
      "Ġclim": 5027,
      "Ġrural": 5028,
      "Ġpurposes": 5029,
      "ronom": 5030,
      "Ġconsult": 5031,
      "oper": 5032,
      "ĠData": 5033,
      "oking": 5034,
      "Ġlanguages": 5035,
      "37": 5036,
      "ategy": 5037,
      "Ġshowing": 5038,
      "Ġstrategy": 5039,
      "48": 5040,
      "place": 5041,
      "Ġwonder": 5042,
      "point": 5043,
      "asks": 5044,
      "ĠPub": 5045,
      "ĠBritain": 5046,
      "Ġvul": 5047,
      "Ġsubjects": 5048,
      "AD": 5049,
      "ĠSum": 5050,
      "ĠWhere": 5051,
      "Ġpul": 5052,
      "aker": 5053,
      "Ġflat": 5054,
      "ĠMake": 5055,
      "Ġproteins": 5056,
      "Ġcore": 5057,
      "ellect": 5058,
      "ca": 5059,
      "ny": 5060,
      "Ġoffered": 5061,
      "Ġgall": 5062,
      "Ġleader": 5063,
      "ÃŃ": 5064,
      "Ġnations": 5065,
      "BN": 5066,
      "ĠNav": 5067,
      "Ġpoet": 5068,
      "Ġideal": 5069,
      "Ġvillage": 5070,
      "Ġnav": 5071,
      "Ġspecifically": 5072,
      "ossible": 5073,
      "Ġdivided": 5074,
      "ĠâĢ¦": 5075,
      "ĠKen": 5076,
      "field": 5077,
      "ĠQue": 5078,
      "Ġfif": 5079,
      "utive": 5080,
      "Ġdomestic": 5081,
      "ĠJud": 5082,
      "Ġportion": 5083,
      "Ġrevolution": 5084,
      "inations": 5085,
      "Ġbiological": 5086,
      "gra": 5087,
      "Ġconvent": 5088,
      "apes": 5089,
      "Ġpractical": 5090,
      "Ġcertainly": 5091,
      "Ġdiscrim": 5092,
      "Ġoperating": 5093,
      "Ġnar": 5094,
      "ĠSou": 5095,
      "Ġrail": 5096,
      "Ġprocedure": 5097,
      "zy": 5098,
      "Ġfelt": 5099,
      "Ġseek": 5100,
      "AP": 5101,
      "Ġshared": 5102,
      "Ġexplan": 5103,
      "Ġsatis": 5104,
      "Ġsend": 5105,
      "ĠAddition": 5106,
      "ĠSuch": 5107,
      "onds": 5108,
      "Ġminimum": 5109,
      "ĠCatholic": 5110,
      "ĠHol": 5111,
      "Ġsolutions": 5112,
      "ĠSea": 5113,
      "Ġtaught": 5114,
      "Ġmere": 5115,
      "Ġmort": 5116,
      "Ġsuggested": 5117,
      "Ġdetailed": 5118,
      "ĠReview": 5119,
      "Ġcontrolled": 5120,
      "44": 5121,
      "Ġvast": 5122,
      "ĠProv": 5123,
      "88": 5124,
      "ION": 5125,
      "ĠNote": 5126,
      "war": 5127,
      "Ġfacts": 5128,
      "Ġallowing": 5129,
      "ĠAN": 5130,
      "ĠFederal": 5131,
      "ĠMac": 5132,
      "ĠYet": 5133,
      "ĠThrough": 5134,
      "Ġinjury": 5135,
      "Ġformation": 5136,
      "Ġconcepts": 5137,
      "ĠLouis": 5138,
      "gment": 5139,
      "Ġnotice": 5140,
      "ĠInstead": 5141,
      "Ġemotional": 5142,
      "Ġdrinking": 5143,
      "ĠÃ": 5144,
      "ags": 5145,
      "32": 5146,
      "Ġpaid": 5147,
      "Ġlooked": 5148,
      "BC": 5149,
      "Ġmaster": 5150,
      "Ġclaims": 5151,
      "Ġstraight": 5152,
      "Ġdu": 5153,
      "ĠThose": 5154,
      "enced": 5155,
      "down": 5156,
      "iced": 5157,
      "Ġ31": 5158,
      "Ġcrops": 5159,
      "rich": 5160,
      "ĠColumb": 5161,
      "ki": 5162,
      "Ġju": 5163,
      "clusion": 5164,
      "Ġcollected": 5165,
      "Ġobtained": 5166,
      "van": 5167,
      "Ġabuse": 5168,
      "oughly": 5169,
      "Ġdiscovery": 5170,
      "Ġadvance": 5171,
      "itness": 5172,
      "arp": 5173,
      "otic": 5174,
      "Ġonto": 5175,
      "ĠCarol": 5176,
      "Ġawareness": 5177,
      "Ġtitle": 5178,
      "Ġpig": 5179,
      "Ġfib": 5180,
      "ĠLeg": 5181,
      "ĠStand": 5182,
      "Ġadvice": 5183,
      "ĠRussian": 5184,
      "Ġinches": 5185,
      "Ġmeasured": 5186,
      "Ġsustainable": 5187,
      "eters": 5188,
      "ĠPsych": 5189,
      "ĠBefore": 5190,
      "going": 5191,
      "ĠLast": 5192,
      "Ġdisapp": 5193,
      "Ġrand": 5194,
      "Ġ1999": 5195,
      "Ġfamiliar": 5196,
      "OS": 5197,
      "ĠRights": 5198,
      "aks": 5199,
      "igenous": 5200,
      "inter": 5201,
      "ĠLake": 5202,
      "Ġcamer": 5203,
      "osa": 5204,
      "Ġkinds": 5205,
      "ĠSupp": 5206,
      "Ġsounds": 5207,
      "ĠFoundation": 5208,
      "Ġdistrict": 5209,
      "Ġgreatest": 5210,
      "ĠSte": 5211,
      "board": 5212,
      "Ġtank": 5213,
      "ĠRussia": 5214,
      "ĠTechnology": 5215,
      "Ġrandom": 5216,
      "Ġspl": 5217,
      "Ġmedium": 5218,
      "Ġcomponent": 5219,
      "inger": 5220,
      "ĠIN": 5221,
      "rian": 5222,
      "Ġcolors": 5223,
      "Ġresist": 5224,
      "Ġsignal": 5225,
      "ĠConstitution": 5226,
      "active": 5227,
      "enses": 5228,
      "Ġlik": 5229,
      "Ġparticles": 5230,
      "Ġlands": 5231,
      "Ġimpacts": 5232,
      "TS": 5233,
      "ota": 5234,
      "Ġgovernments": 5235,
      "Ġdirector": 5236,
      "verty": 5237,
      "osite": 5238,
      "Ġfundamental": 5239,
      "Ġslightly": 5240,
      "ĠBur": 5241,
      "Ġpoverty": 5242,
      "Ġtreatments": 5243,
      "Ġcharacters": 5244,
      "Ġrecognized": 5245,
      "comes": 5246,
      "ipped": 5247,
      "ĠFlorida": 5248,
      "Ġwet": 5249,
      "athy": 5250,
      "tion": 5251,
      "Ġhappened": 5252,
      "ĠBet": 5253,
      "vis": 5254,
      "Ġstem": 5255,
      "ĠBudd": 5256,
      "cycl": 5257,
      "Ġkeeping": 5258,
      "Ġthin": 5259,
      "Ġsnow": 5260,
      "ĠGoogle": 5261,
      "Ġneighbor": 5262,
      "ta": 5263,
      "Ġmanage": 5264,
      "resents": 5265,
      "Ġkm": 5266,
      "eal": 5267,
      "istan": 5268,
      "Ġsubsequ": 5269,
      "rolog": 5270,
      "Ġaccurate": 5271,
      "Ġnerv": 5272,
      "Ġsurrounding": 5273,
      "ĠSmith": 5274,
      "Ġ45": 5275,
      "Ġtopics": 5276,
      "aria": 5277,
      "ĠLong": 5278,
      "Ġreduction": 5279,
      "ball": 5280,
      "hi": 5281,
      "Ġexternal": 5282,
      "Ġotherwise": 5283,
      "Ġtypical": 5284,
      "If": 5285,
      "Ġsides": 5286,
      "itage": 5287,
      "Ġthr": 5288,
      "Ġvisible": 5289,
      "ĠStudies": 5290,
      "Ġharvest": 5291,
      ".;": 5292,
      "road": 5293,
      "Ġblog": 5294,
      "mic": 5295,
      "oo": 5296,
      "ĠJose": 5297,
      "Ġcrisis": 5298,
      "Ġprices": 5299,
      "chers": 5300,
      "Ġparties": 5301,
      "othing": 5302,
      "Ġdepth": 5303,
      "Ġconsists": 5304,
      "Ġdocuments": 5305,
      "Ġserver": 5306,
      "Ġinterests": 5307,
      "rating": 5308,
      "state": 5309,
      "ĠAD": 5310,
      "Ġstated": 5311,
      "Ġcontribute": 5312,
      "aturally": 5313,
      "crib": 5314,
      "ĠSaf": 5315,
      "Ġaqu": 5316,
      "ĠStreet": 5317,
      "Ġdouble": 5318,
      "espite": 5319,
      "ael": 5320,
      "Ġfaster": 5321,
      "inding": 5322,
      "Ġformat": 5323,
      "Ġfigures": 5324,
      "Ġalg": 5325,
      "ears": 5326,
      "Ġtested": 5327,
      "Ġconcerned": 5328,
      "ING": 5329,
      "ĠOffice": 5330,
      "Ġdespite": 5331,
      "Ġexcellent": 5332,
      "Ã¡": 5333,
      "Ġhelping": 5334,
      "Ġsector": 5335,
      "riculum": 5336,
      "Ġconsequences": 5337,
      "Ġlatter": 5338,
      "ĠCompany": 5339,
      "attle": 5340,
      "Ġfertil": 5341,
      "ĠNor": 5342,
      "ĠLabor": 5343,
      "Ġfocused": 5344,
      "which": 5345,
      "Ġabsolute": 5346,
      "roke": 5347,
      "ĠGold": 5348,
      "Ġrefers": 5349,
      "Ġleaving": 5350,
      "Ġknew": 5351,
      "Ġdistingu": 5352,
      "].": 5353,
      "Ġtherm": 5354,
      "ĠMiddle": 5355,
      "Ġmountain": 5356,
      "Ġwalls": 5357,
      "asure": 5358,
      "ĠWild": 5359,
      "Ġsubstant": 5360,
      "Ġperspective": 5361,
      "Ġband": 5362,
      "Ġbrown": 5363,
      "Ġ1998": 5364,
      "Ġmotiv": 5365,
      "Ġchart": 5366,
      "Americ": 5367,
      "rus": 5368,
      "Ġrepresents": 5369,
      "Ġlibrary": 5370,
      "Ġrapidly": 5371,
      "pping": 5372,
      "lar": 5373,
      "iled": 5374,
      "Ġcomfort": 5375,
      "ulin": 5376,
      "Ġagriculture": 5377,
      "Ġdiam": 5378,
      "Ġapproaches": 5379,
      "olf": 5380,
      "ĠGood": 5381,
      "Ġattacks": 5382,
      "34": 5383,
      "Ġtro": 5384,
      "Ġgrown": 5385,
      "500": 5386,
      "ses": 5387,
      "ĠAlex": 5388,
      "Ġgar": 5389,
      "ĠDel": 5390,
      "Ġcounty": 5391,
      "ĠLearning": 5392,
      "ĠKnow": 5393,
      "Ġecosystem": 5394,
      "Ġplayed": 5395,
      "ache": 5396,
      "rier": 5397,
      "ails": 5398,
      "ĠOnly": 5399,
      "Ġfle": 5400,
      "olars": 5401,
      "rapy": 5402,
      "Ġtun": 5403,
      "inant": 5404,
      "ĠPlease": 5405,
      "band": 5406,
      "ĠNature": 5407,
      "Ġcontem": 5408,
      "hma": 5409,
      "Ġbird": 5410,
      "ĠCommit": 5411,
      "Ġsurpris": 5412,
      "Ġspend": 5413,
      "Ġphone": 5414,
      "Ġhouses": 5415,
      "Ġpump": 5416,
      "iest": 5417,
      "umber": 5418,
      "Ġpotentially": 5419,
      "ĠControl": 5420,
      "Ġhabitat": 5421,
      "ĠMill": 5422,
      "Ġhorse": 5423,
      "ĠPower": 5424,
      "ĠBC": 5425,
      "Ġpaint": 5426,
      "Ġmoon": 5427,
      "Ġinsp": 5428,
      "ĠRad": 5429,
      "roid": 5430,
      "Ġdescription": 5431,
      "Ġmyth": 5432,
      "Ġtried": 5433,
      "85": 5434,
      "ester": 5435,
      "Ġfirm": 5436,
      "nam": 5437,
      "Ġexplains": 5438,
      "Ġadding": 5439,
      "Ġmonitoring": 5440,
      "Ġplatform": 5441,
      "Ġmath": 5442,
      "ĠIll": 5443,
      "ropical": 5444,
      "Ġappearance": 5445,
      "Ġclosely": 5446,
      "Ġhundreds": 5447,
      "Ġmoist": 5448,
      "Ġhaz": 5449,
      "Ġclosed": 5450,
      "Ġ36": 5451,
      "Ġmetab": 5452,
      "Ġdiscussed": 5453,
      "PS": 5454,
      "Ġmit": 5455,
      "Ġcontinuous": 5456,
      "Ġexplained": 5457,
      "Ġsituations": 5458,
      "celer": 5459,
      "Ġspeaking": 5460,
      "Ġprotected": 5461,
      "Ġlesson": 5462,
      "ĠPhot": 5463,
      "Ġelev": 5464,
      "76": 5465,
      "Ġbow": 5466,
      "Ġdust": 5467,
      "ĠTer": 5468,
      "ĠRob": 5469,
      "Ġconcentration": 5470,
      "Ġvulner": 5471,
      "Ġlov": 5472,
      "Ġoriginally": 5473,
      "ĠProfessor": 5474,
      "ĠDan": 5475,
      "ĠEngine": 5476,
      "Ġsurvival": 5477,
      "Ġsen": 5478,
      "ĠMont": 5479,
      "Ġintellect": 5480,
      "Ġschem": 5481,
      "ework": 5482,
      "Ġviews": 5483,
      "ĠISBN": 5484,
      "Ġmamm": 5485,
      "Ġod": 5486,
      "Ġtraffic": 5487,
      "Ġsimpl": 5488,
      "alse": 5489,
      "Ġmix": 5490,
      "Ġoral": 5491,
      "Ġunlike": 5492,
      "Ġwire": 5493,
      "itud": 5494,
      "stood": 5495,
      "ogue": 5496,
      "Ġcalls": 5497,
      "Ġvoice": 5498,
      "inet": 5499,
      "Ġrestrict": 5500,
      "Ġroll": 5501,
      "Ġmuscles": 5502,
      "Ġstone": 5503,
      "atever": 5504,
      "US": 5505,
      "Ġinject": 5506,
      "Ġgender": 5507,
      "racy": 5508,
      "rep": 5509,
      "ĠNatural": 5510,
      "Ġplate": 5511,
      "ĠGet": 5512,
      "Ġgoods": 5513,
      "Ġfrag": 5514,
      "Ġfunding": 5515,
      "Ġinstrument": 5516,
      "eria": 5517,
      "Ġpark": 5518,
      "Ġdut": 5519,
      "Ġ300": 5520,
      "Ġtrad": 5521,
      "Ġdial": 5522,
      "Ġentirely": 5523,
      "Ġaccompl": 5524,
      "anges": 5525,
      "Ġflex": 5526,
      "ĠBible": 5527,
      "ĠDespite": 5528,
      "Ġcapable": 5529,
      "ario": 5530,
      "Ġnan": 5531,
      "Ġperiods": 5532,
      "ka": 5533,
      "Ġrecip": 5534,
      "itan": 5535,
      "Ġstored": 5536,
      "inder": 5537,
      "Ġdepends": 5538,
      "Ġprocedures": 5539,
      "IL": 5540,
      "with": 5541,
      "Ġhunt": 5542,
      "Ġmassive": 5543,
      "bing": 5544,
      "Ġprevention": 5545,
      "rot": 5546,
      "ston": 5547,
      "Ġfell": 5548,
      "ĠOx": 5549,
      "Ġinflamm": 5550,
      "Ġincreasingly": 5551,
      "ĠCamb": 5552,
      "Ġaren": 5553,
      "Ġinfected": 5554,
      "Ġrid": 5555,
      "Ġtrain": 5556,
      "Ġlatest": 5557,
      "rastructure": 5558,
      "col": 5559,
      "ye": 5560,
      "omy": 5561,
      "Ġregional": 5562,
      "Ġ1980": 5563,
      "ĠMo": 5564,
      "Ġshel": 5565,
      "Ġexperiments": 5566,
      "rob": 5567,
      "ĠFigure": 5568,
      "Ġfollows": 5569,
      "Ġrecognize": 5570,
      "ona": 5571,
      "Ġdepos": 5572,
      "Ġdeaths": 5573,
      "Ġpure": 5574,
      "Ġsyndrome": 5575,
      "Ġspiritual": 5576,
      "ĠCa": 5577,
      "Ġnutrients": 5578,
      "Ġopinion": 5579,
      "Ġdream": 5580,
      "Ġindeed": 5581,
      "Ġprinciple": 5582,
      "ĠId": 5583,
      "Ġagencies": 5584,
      "flow": 5585,
      "Ġsubs": 5586,
      "Ġmillions": 5587,
      "indu": 5588,
      "Ġvital": 5589,
      "obe": 5590,
      "ĠCanadian": 5591,
      "Ġaccepted": 5592,
      "Ġdatabase": 5593,
      "ship": 5594,
      "ocratic": 5595,
      "sembly": 5596,
      "46": 5597,
      "fall": 5598,
      "ĠOh": 5599,
      "Ġhelpful": 5600,
      "Ġsky": 5601,
      "Ġvaluable": 5602,
      "Ġsequence": 5603,
      "Ġproducing": 5604,
      "Ġpictures": 5605,
      "ificial": 5606,
      "89": 5607,
      "ĠHome": 5608,
      "ĠAnn": 5609,
      "ĠReport": 5610,
      "Ġliver": 5611,
      "Ġaffects": 5612,
      "Ġlisted": 5613,
      "body": 5614,
      "Ġchapter": 5615,
      "Ġjustice": 5616,
      "ini": 5617,
      "liam": 5618,
      "dden": 5619,
      "Ġwww": 5620,
      "Ġrub": 5621,
      "Ġallerg": 5622,
      "anguage": 5623,
      "Ġancest": 5624,
      "Ġfruits": 5625,
      "ĠFinally": 5626,
      "Ġsan": 5627,
      "Ġchann": 5628,
      "Ġresidents": 5629,
      "Ġsatell": 5630,
      "stream": 5631,
      "Ġobl": 5632,
      "mun": 5633,
      "vity": 5634,
      "Ġstock": 5635,
      "ĠAtt": 5636,
      "faces": 5637,
      "anged": 5638,
      "ĠExper": 5639,
      "ĠGlobal": 5640,
      "Ġselected": 5641,
      "ava": 5642,
      "pass": 5643,
      "Ġmovements": 5644,
      "oral": 5645,
      "Ġshut": 5646,
      "ĠKore": 5647,
      "ĠFe": 5648,
      "ĠStat": 5649,
      "Ġparam": 5650,
      "Ġprecise": 5651,
      "Ġethnic": 5652,
      "Ġbudget": 5653,
      "Ġneut": 5654,
      "Ġnarr": 5655,
      "Ġequival": 5656,
      "Ġmobile": 5657,
      "Ġnine": 5658,
      "Ġadequ": 5659,
      "Ġflight": 5660,
      "Ġadvoc": 5661,
      "Ġlaun": 5662,
      "Ġnarrow": 5663,
      "agues": 5664,
      "Ġtow": 5665,
      "free": 5666,
      "Ġreaders": 5667,
      "Ġcritic": 5668,
      "Ġhyper": 5669,
      "ih": 5670,
      "idity": 5671,
      "abil": 5672,
      "47": 5673,
      "Ġnormally": 5674,
      "Ġcognitive": 5675,
      "Ġdin": 5676,
      "Ġlose": 5677,
      "ĠMad": 5678,
      "ĠMag": 5679,
      "Ġinstruction": 5680,
      "Ġleadership": 5681,
      "Ġunless": 5682,
      "Ġinvestment": 5683,
      "Ġnewsp": 5684,
      "Ġpossibly": 5685,
      "31": 5686,
      "Ġindex": 5687,
      "spec": 5688,
      "DF": 5689,
      "Ġpu": 5690,
      "ĠVis": 5691,
      "asp": 5692,
      "ĠBre": 5693,
      "Ġvote": 5694,
      "Ġsuc": 5695,
      "Ġimpossible": 5696,
      "ĠWho": 5697,
      "Ġ2015": 5698,
      "Ġlandscape": 5699,
      "pet": 5700,
      "Ġdiversity": 5701,
      "Ġsudden": 5702,
      "Ġships": 5703,
      "ĠPers": 5704,
      "Ġraise": 5705,
      "Ġemployees": 5706,
      "Ġargument": 5707,
      "Ġpregnancy": 5708,
      "ĠTor": 5709,
      "Ġdecade": 5710,
      "ĠCat": 5711,
      "Ġpossess": 5712,
      "Ġadopted": 5713,
      "tenance": 5714,
      "Ġapart": 5715,
      "organ": 5716,
      "Ġpray": 5717,
      "âĢľ": 5718,
      "Ġroots": 5719,
      "ĠGeorg": 5720,
      "Ġpretty": 5721,
      "ĠPenn": 5722,
      "Ġdescribes": 5723,
      "eer": 5724,
      "Ġgirls": 5725,
      "ĠRichard": 5726,
      "ifies": 5727,
      "Ġwindow": 5728,
      "ĠFrank": 5729,
      "ĠCommittee": 5730,
      "ĠChic": 5731,
      "Ġregist": 5732,
      "Ġmarked": 5733,
      "Ġmarriage": 5734,
      "Ġtransmission": 5735,
      "Ġinterview": 5736,
      "ĠRef": 5737,
      "Ġmarine": 5738,
      "ĠBrown": 5739,
      "Ġopened": 5740,
      "Ġfailed": 5741,
      "Ġsubstance": 5742,
      "?âĢĿ": 5743,
      "esity": 5744,
      "ĠHall": 5745,
      "Ġtouch": 5746,
      "ects": 5747,
      "ĠFollow": 5748,
      "Ġdeliver": 5749,
      "Ġcomprehensive": 5750,
      "Ġtiny": 5751,
      "ĠEnd": 5752,
      "Ġax": 5753,
      "Ġnaturally": 5754,
      "Ġmemb": 5755,
      "ĠCare": 5756,
      "ĠExt": 5757,
      "Ġmedications": 5758,
      "ĠColor": 5759,
      "Ġtalking": 5760,
      "Ġcouple": 5761,
      "Ġ1970": 5762,
      "liament": 5763,
      "ĠValley": 5764,
      "ĠNations": 5765,
      "ĠThough": 5766,
      "Ġintroduction": 5767,
      "Ġrepeated": 5768,
      "ooth": 5769,
      "Ġroof": 5770,
      "Ġpurs": 5771,
      "ĠManagement": 5772,
      "umin": 5773,
      "Ġphr": 5774,
      "zen": 5775,
      "Ġingred": 5776,
      "Ġfly": 5777,
      "Ġstret": 5778,
      "Ġsets": 5779,
      "inction": 5780,
      "ĠDu": 5781,
      "oviet": 5782,
      "Ġextensive": 5783,
      "ĠAmong": 5784,
      "Ġexpensive": 5785,
      "Ġregularly": 5786,
      "ĠTop": 5787,
      "Ġselection": 5788,
      "Ġ||": 5789,
      "Ġexpressed": 5790,
      "ĠHave": 5791,
      "Ġages": 5792,
      "Ġera": 5793,
      "ĠPan": 5794,
      "Ġextended": 5795,
      "ĠSouthern": 5796,
      "Ġsin": 5797,
      "icide": 5798,
      "ĠPeter": 5799,
      "erved": 5800,
      "Ġacts": 5801,
      "Ġtips": 5802,
      "Ġsick": 5803,
      "ĠTime": 5804,
      "Ġremaining": 5805,
      "Ġopening": 5806,
      "la": 5807,
      "Ġgal": 5808,
      "Ġmanaged": 5809,
      "Ġgenerate": 5810,
      "Ġsecure": 5811,
      "oster": 5812,
      "Ġoutcomes": 5813,
      "Ġdecline": 5814,
      "rors": 5815,
      "elled": 5816,
      "Ġadministration": 5817,
      "irty": 5818,
      "Ġformal": 5819,
      "Ġorganized": 5820,
      "olester": 5821,
      "Ġrevealed": 5822,
      "Ġdestroyed": 5823,
      "isp": 5824,
      "Ġthoughts": 5825,
      "Ġsecondary": 5826,
      "Ġfacilit": 5827,
      "ascular": 5828,
      "Ġauthorities": 5829,
      "49": 5830,
      "ĠPM": 5831,
      "Ġderived": 5832,
      "Ġgun": 5833,
      "ĠDiv": 5834,
      "osc": 5835,
      "ibilities": 5836,
      "Ġcultiv": 5837,
      "Ġdecrease": 5838,
      "SS": 5839,
      "Ġpossibility": 5840,
      "Ġwants": 5841,
      "Ġtwice": 5842,
      "Ġfoundation": 5843,
      "Ġ1997": 5844,
      "Ġlabel": 5845,
      "Ġslowly": 5846,
      "ĠAcademy": 5847,
      "icit": 5848,
      "ocracy": 5849,
      "ĠAdd": 5850,
      "omach": 5851,
      "Ġincl": 5852,
      "normal": 5853,
      "Ġperce": 5854,
      "Ġerror": 5855,
      "Ġessay": 5856,
      "Ġdigest": 5857,
      "Ġble": 5858,
      "Ġmuseum": 5859,
      "icks": 5860,
      "level": 5861,
      "ĠFree": 5862,
      "Ġelectronic": 5863,
      "Ġaw": 5864,
      "Ġsoldiers": 5865,
      "uilding": 5866,
      "Ġcircumst": 5867,
      "CO": 5868,
      "77": 5869,
      "Ġindicates": 5870,
      "ansas": 5871,
      "Ġreplaced": 5872,
      "Ġwildlife": 5873,
      "icon": 5874,
      "ĠParis": 5875,
      "Ġsuitable": 5876,
      "Ġweap": 5877,
      "Ġfluid": 5878,
      "UR": 5879,
      "Ġlaboratory": 5880,
      "cyclop": 5881,
      "Ġarms": 5882,
      "Ġcrucial": 5883,
      "ita": 5884,
      "ĠHaw": 5885,
      "Ġplaying": 5886,
      "86": 5887,
      "uh": 5888,
      "Ġprem": 5889,
      "rine": 5890,
      "Ġtooth": 5891,
      "Ġintervention": 5892,
      "Ġnetworks": 5893,
      "ĠMa": 5894,
      "ansion": 5895,
      "Ġedge": 5896,
      "Ġsuffer": 5897,
      "Ġsmart": 5898,
      "Ġpermanent": 5899,
      "long": 5900,
      "Ġsentence": 5901,
      "Ġtasks": 5902,
      "Ġpush": 5903,
      "Ġrein": 5904,
      "Ġwear": 5905,
      "Ġdaughter": 5906,
      "ĠWhe": 5907,
      "Ġslaves": 5908,
      "olesterol": 5909,
      "oned": 5910,
      "Ġcrim": 5911,
      "Ġuniverse": 5912,
      "Ġ500": 5913,
      "inson": 5914,
      "rans": 5915,
      "Ġscholars": 5916,
      "Ġdoubt": 5917,
      "aser": 5918,
      "ĠAgricult": 5919,
      "ĠNative": 5920,
      "ĠGal": 5921,
      "agers": 5922,
      "ints": 5923,
      "55": 5924,
      "ora": 5925,
      "Ġfounded": 5926,
      "Ġbones": 5927,
      "Ġnoise": 5928,
      "Ġorganisms": 5929,
      "ĠStudy": 5930,
      "Ġguidelines": 5931,
      "Ġaf": 5932,
      "inity": 5933,
      "Ġfilled": 5934,
      "Ġtoler": 5935,
      "ĠJoseph": 5936,
      "Ġprincip": 5937,
      "inn": 5938,
      "Ġunderstood": 5939,
      "Ġtells": 5940,
      "born": 5941,
      "alian": 5942,
      "ictionary": 5943,
      "osph": 5944,
      "bert": 5945,
      "Ġagreement": 5946,
      "ĠDisease": 5947,
      "ĠTem": 5948,
      "Ġalle": 5949,
      "Ġdesire": 5950,
      "Ġworldwide": 5951,
      "opl": 5952,
      "Ġapprec": 5953,
      "Ġmechanism": 5954,
      "ĠAC": 5955,
      "Ġamb": 5956,
      "Ġcars": 5957,
      "An": 5958,
      "Ġgather": 5959,
      "ĠCamp": 5960,
      "add": 5961,
      "ĠIndians": 5962,
      "Ġhappy": 5963,
      "Ġprepare": 5964,
      "eers": 5965,
      "Ġlimits": 5966,
      "Ġcomputers": 5967,
      "Ġsuffering": 5968,
      "Ġcup": 5969,
      "ĠLab": 5970,
      "using": 5971,
      "Ġproduces": 5972,
      "ĠEarly": 5973,
      "Ġcircuit": 5974,
      "yth": 5975,
      "Ġreven": 5976,
      "ĠMer": 5977,
      "Ġassistance": 5978,
      "Ġinternet": 5979,
      "Ġconventional": 5980,
      "lements": 5981,
      "ĠSant": 5982,
      "Ġuns": 5983,
      "Ġtwenty": 5984,
      "Ġtransition": 5985,
      "Ġgreenhouse": 5986,
      "ĠClin": 5987,
      "Ġachieved": 5988,
      "Ġthousand": 5989,
      "alysis": 5990,
      "There": 5991,
      "Ġeastern": 5992,
      "ĠTeac": 5993,
      "ĠDesign": 5994,
      "Ġchildhood": 5995,
      "Ġfossil": 5996,
      "Ġfilter": 5997,
      "Ġcandid": 5998,
      "Ġwave": 5999,
      "ĠSol": 6000,
      "luding": 6001,
      "Ġacceler": 6002,
      "ĠKeep": 6003,
      "Ġphotograph": 6004,
      "Ġbear": 6005,
      "Ġelectron": 6006,
      "Ġsurvive": 6007,
      "Ġenhance": 6008,
      "You": 6009,
      "erals": 6010,
      "ena": 6011,
      "itt": 6012,
      "Ġpair": 6013,
      "orph": 6014,
      "Ġinfrastructure": 6015,
      "Ġnecessarily": 6016,
      "isters": 6017,
      "hist": 6018,
      "ala": 6019,
      "Ġinsects": 6020,
      "ugh": 6021,
      "Ġstorm": 6022,
      "Ġlessons": 6023,
      "Ġfeelings": 6024,
      "ĠSoviet": 6025,
      "idden": 6026,
      "ĠWrit": 6027,
      "Ġextract": 6028,
      "vironments": 6029,
      "hemical": 6030,
      "ashion": 6031,
      "Ġforests": 6032,
      "ĠCarolina": 6033,
      "iform": 6034,
      "ĠFort": 6035,
      "Ġanswers": 6036,
      "Ġdiox": 6037,
      "Ġattached": 6038,
      "Ġminim": 6039,
      "Ġaircraft": 6040,
      "Ġsensitive": 6041,
      "Ġcardi": 6042,
      "As": 6043,
      "reed": 6044,
      "Ġdriving": 6045,
      "oln": 6046,
      "Ġcoff": 6047,
      "Ġbroken": 6048,
      "Ġvessels": 6049,
      "Ġcurriculum": 6050,
      "Ġvehicle": 6051,
      "Ġtroops": 6052,
      "99": 6053,
      "ĠOF": 6054,
      "Ġagency": 6055,
      "Ġaccounts": 6056,
      "Ġcounsel": 6057,
      "Ġobtain": 6058,
      "Ġtail": 6059,
      "Ġdoor": 6060,
      "Ġoutl": 6061,
      "iability": 6062,
      "Ġhus": 6063,
      "ĠFact": 6064,
      "Ġgenerated": 6065,
      "erior": 6066,
      "ĠCap": 6067,
      "Ġpainting": 6068,
      "87": 6069,
      "Ġrecovery": 6070,
      "Ġstudying": 6071,
      "prise": 6072,
      "Ġrepresented": 6073,
      "ada": 6074,
      "Ġissued": 6075,
      "Ġplays": 6076,
      "eper": 6077,
      "Ġpull": 6078,
      "Ġseeing": 6079,
      "ĠCult": 6080,
      "ĠClick": 6081,
      "ĠDet": 6082,
      "Ġchosen": 6083,
      "Ġcarefully": 6084,
      "ĠÂ©": 6085,
      "HO": 6086,
      "Ġmur": 6087,
      "Ġgone": 6088,
      "Ġsharing": 6089,
      "Ġworse": 6090,
      "Ġremark": 6091,
      "hand": 6092,
      "Ġabund": 6093,
      "Ġprotocol": 6094,
      "iah": 6095,
      "Ġmulti": 6096,
      "cription": 6097,
      "kes": 6098,
      "ĠOcean": 6099,
      "inking": 6100,
      "ĠAdminist": 6101,
      "Ġcalcium": 6102,
      "pre": 6103,
      "press": 6104,
      "ĠSat": 6105,
      "Ġconscious": 6106,
      "Ġengage": 6107,
      "Ġreject": 6108,
      "ĠAst": 6109,
      "ĠEr": 6110,
      "eck": 6111,
      "Ġtrials": 6112,
      "throp": 6113,
      "Ġelection": 6114,
      "Ġhoriz": 6115,
      "EP": 6116,
      "Ġcatch": 6117,
      "Ġwel": 6118,
      "Ġfill": 6119,
      "teries": 6120,
      "asters": 6121,
      "Ġstages": 6122,
      "Ġoccasion": 6123,
      "Ġratio": 6124,
      "kin": 6125,
      "ĠVict": 6126,
      "Ġ2014": 6127,
      "Ġafford": 6128,
      "Ġlegisl": 6129,
      "Ġjourney": 6130,
      "under": 6131,
      "Ġbot": 6132,
      "Ġfixed": 6133,
      "Ġlocations": 6134,
      "Ġstands": 6135,
      "Ġbusinesses": 6136,
      "Ġdedicated": 6137,
      "ĠMD": 6138,
      "erent": 6139,
      "Ġcontained": 6140,
      "Ġcontamin": 6141,
      "Ġexchange": 6142,
      "ĠTake": 6143,
      "Ġends": 6144,
      "Ġremote": 6145,
      "apping": 6146,
      "Ġunus": 6147,
      "Ġroutine": 6148,
      "Ġtaste": 6149,
      "icians": 6150,
      "Ġsuccessfully": 6151,
      "Ġdifficulty": 6152,
      "orrow": 6153,
      "Ġcolleagues": 6154,
      "Ġdepartment": 6155,
      "ĠClimate": 6156,
      "MS": 6157,
      "Ġwitness": 6158,
      "Ġgreatly": 6159,
      "Ġterritory": 6160,
      "43": 6161,
      "Ġstomach": 6162,
      "Ġinsurance": 6163,
      "Ġmaintenance": 6164,
      "Ġveter": 6165,
      "Ġintellectual": 6166,
      "Ġaer": 6167,
      "ĠEss": 6168,
      "Ġmoral": 6169,
      "Ġinstitution": 6170,
      "heast": 6171,
      "Ġbio": 6172,
      "95": 6173,
      "Ġcert": 6174,
      "Ġborder": 6175,
      "irds": 6176,
      "Ġunknown": 6177,
      "Ġconsistent": 6178,
      "ĠCurrent": 6179,
      "ĠTimes": 6180,
      "Ġyield": 6181,
      "ĠMain": 6182,
      "ĠBank": 6183,
      "abric": 6184,
      "ercury": 6185,
      "Ġintelligence": 6186,
      "Ġcorpor": 6187,
      "Ġstarts": 6188,
      "Ġlies": 6189,
      "etics": 6190,
      "abb": 6191,
      "ureau": 6192,
      "Ġrecy": 6193,
      "Ġdiscipl": 6194,
      "Ġparalle": 6195,
      "ĠPo": 6196,
      "Ġexists": 6197,
      "Ġleaf": 6198,
      "Ġfewer": 6199,
      "ĠMichael": 6200,
      "olve": 6201,
      "Ġchrom": 6202,
      "ĠViet": 6203,
      "ypes": 6204,
      "ĠCancer": 6205,
      "Ġconstitution": 6206,
      "Ġreader": 6207,
      "Ġsell": 6208,
      "izer": 6209,
      "Ġ150": 6210,
      "ĠEmpire": 6211,
      "fish": 6212,
      "ĠProp": 6213,
      "Ġresulted": 6214,
      "Ġvariable": 6215,
      "burg": 6216,
      "Ġprofessionals": 6217,
      "Ġfunds": 6218,
      "Ġopposite": 6219,
      "Ġlisten": 6220,
      "Ġequivalent": 6221,
      "Ġtal": 6222,
      "Ġepid": 6223,
      "Ġarchitecture": 6224,
      "Ġkidney": 6225,
      "Ġdioxide": 6226,
      "Ã¼": 6227,
      "heim": 6228,
      "ĠWood": 6229,
      "ĠWik": 6230,
      "Ġjoined": 6231,
      "ĠCy": 6232,
      "Ġenvironments": 6233,
      "ifications": 6234,
      "scale": 6235,
      "Ġdebate": 6236,
      "igrants": 6237,
      "ima": 6238,
      "Ġimproving": 6239,
      "Ġgrew": 6240,
      "Ġsweet": 6241,
      "Ġmaps": 6242,
      "Ġstick": 6243,
      "orses": 6244,
      "Ġdiverse": 6245,
      "Ġlifest": 6246,
      "ĠNorthern": 6247,
      "Ġ1995": 6248,
      "Ġzone": 6249,
      "Ġimmediate": 6250,
      "Ġaccum": 6251,
      "Ġsupplies": 6252,
      "Ġsolve": 6253,
      "Ġcontrols": 6254,
      "azine": 6255,
      "ĠUSA": 6256,
      "ĠIII": 6257,
      "Ġmanufacturing": 6258,
      "orter": 6259,
      "Ġattend": 6260,
      "ĠSciences": 6261,
      "incoln": 6262,
      "Ġconsumers": 6263,
      "Ġhydrogen": 6264,
      "IA": 6265,
      "zed": 6266,
      "lets": 6267,
      "Ġnurs": 6268,
      "Ġconcrete": 6269,
      "rust": 6270,
      "arant": 6271,
      "ĠCre": 6272,
      "teen": 6273,
      "Ġsucceed": 6274,
      "ocation": 6275,
      "Ġtract": 6276,
      "Ġchoices": 6277,
      "Ġcomments": 6278,
      "Ġdomain": 6279,
      "Is": 6280,
      "ĠSpain": 6281,
      "ua": 6282,
      "Ġpra": 6283,
      "Ġpestic": 6284,
      "Ġdrawing": 6285,
      "stract": 6286,
      "Ġshot": 6287,
      "Ġdecide": 6288,
      "Ġmedication": 6289,
      "ĠConn": 6290,
      "Ġcrime": 6291,
      "Al": 6292,
      "called": 6293,
      "sts": 6294,
      "ĠCast": 6295,
      "emia": 6296,
      "ensions": 6297,
      "Ġdefine": 6298,
      "ĠResources": 6299,
      "Ġpresentation": 6300,
      "Ġstruggle": 6301,
      "nership": 6302,
      "Ġmild": 6303,
      "omic": 6304,
      "Ġvolcan": 6305,
      "Ġcreates": 6306,
      "ĠGuide": 6307,
      "Ġlegislation": 6308,
      "xts": 6309,
      "Ġacids": 6310,
      "Ġobservations": 6311,
      "ato": 6312,
      "Ġexamine": 6313,
      "IG": 6314,
      "Ġfalse": 6315,
      "Ġcomposition": 6316,
      "LE": 6317,
      "heric": 6318,
      "Ġ2020": 6319,
      "Ġsail": 6320,
      "Ġthor": 6321,
      "ĠPC": 6322,
      "Ġsupposed": 6323,
      "ĠÎ": 6324,
      "Ġsections": 6325,
      "ĠSign": 6326,
      "Ġsignals": 6327,
      "ĠFamily": 6328,
      "avery": 6329,
      "orous": 6330,
      "ĠFour": 6331,
      "ĠEth": 6332,
      "Ġclust": 6333,
      "phone": 6334,
      "Ġstanding": 6335,
      "ployment": 6336,
      "Ġemployment": 6337,
      "Ġhttps": 6338,
      "Ġultimately": 6339,
      "IP": 6340,
      "ĠMoreover": 6341,
      "ĠDiff": 6342,
      "ĠKh": 6343,
      "wing": 6344,
      "Ġmixed": 6345,
      "Ġshift": 6346,
      "ĠVit": 6347,
      "Ġru": 6348,
      "Ġwilling": 6349,
      "Ġknows": 6350,
      "Ġrelation": 6351,
      "How": 6352,
      "Ġcommunicate": 6353,
      "66": 6354,
      "abits": 6355,
      "ĠFind": 6356,
      "exp": 6357,
      "ĠAustralian": 6358,
      "Ġscene": 6359,
      "Ġflag": 6360,
      "Ġnearby": 6361,
      "Ġharmful": 6362,
      "ĠCheck": 6363,
      "Ġcomparison": 6364,
      "Ġwaves": 6365,
      "sey": 6366,
      "ĠAccess": 6367,
      "ĠDar": 6368,
      "ĠList": 6369,
      "Ġexplo": 6370,
      "ediatric": 6371,
      "Ġviruses": 6372,
      "Ġsod": 6373,
      "Ġwish": 6374,
      "Ġscript": 6375,
      "Ġresponses": 6376,
      "Ġarrived": 6377,
      "Ġenable": 6378,
      "Ġcourses": 6379,
      "ĠQuest": 6380,
      "ĠSever": 6381,
      "umes": 6382,
      "Ġshell": 6383,
      "Ġbeneficial": 6384,
      "Ġtransportation": 6385,
      "ĠFrancisc": 6386,
      "Ġrecept": 6387,
      "ĠBoard": 6388,
      "Ġroute": 6389,
      "ipping": 6390,
      "05": 6391,
      "IR": 6392,
      "ittle": 6393,
      "Ġoutbre": 6394,
      "ĠDoes": 6395,
      "ĠChicago": 6396,
      "sets": 6397,
      "ading": 6398,
      "Ġinner": 6399,
      "occ": 6400,
      "Ġ1960": 6401,
      "Ġimplementation": 6402,
      "ĠLearn": 6403,
      "American": 6404,
      "ĠAsian": 6405,
      "Ġwhereas": 6406,
      "Ġsomewhat": 6407,
      "Ġ32": 6408,
      "Ġdoctors": 6409,
      "Ġinteraction": 6410,
      "Ġdemonstrated": 6411,
      "Ġcryst": 6412,
      "gent": 6413,
      "apse": 6414,
      "Ġprompt": 6415,
      "stein": 6416,
      "onn": 6417,
      "Ġcards": 6418,
      "Ġcholesterol": 6419,
      "Ġsupplement": 6420,
      "Ġpersist": 6421,
      "Ġestimate": 6422,
      "Ġforth": 6423,
      "ey": 6424,
      "tra": 6425,
      "ĠVen": 6426,
      "Ġdefe": 6427,
      "Ġdepart": 6428,
      "Ġvehicles": 6429,
      "'m": 6430,
      "eenth": 6431,
      "Ġtall": 6432,
      "Ġpool": 6433,
      "ĠâĨ": 6434,
      "power": 6435,
      "ĠRoyal": 6436,
      "ĠSpecial": 6437,
      "Ġdiscrimination": 6438,
      "ĠColumbia": 6439,
      "ĠLincoln": 6440,
      "Ġhandle": 6441,
      "ĠSometimes": 6442,
      "Ġcircumstances": 6443,
      "Ġresolution": 6444,
      "Ġtruly": 6445,
      "Ġbehaviour": 6446,
      "Ġpowers": 6447,
      "Ġlots": 6448,
      "cel": 6449,
      "Ġparticipate": 6450,
      "Ġconstructed": 6451,
      "Ġcloser": 6452,
      "Ġaward": 6453,
      "Ġprohib": 6454,
      "anda": 6455,
      "ĠThree": 6456,
      "Ġunable": 6457,
      "Ġyounger": 6458,
      "mary": 6459,
      "Ġbehaviors": 6460,
      "ĠGard": 6461,
      "Ġmineral": 6462,
      "Ġmolecules": 6463,
      "itudes": 6464,
      "mas": 6465,
      "Ġcart": 6466,
      "Ġuniversity": 6467,
      "Ġobst": 6468,
      "Ġhem": 6469,
      "Ġimper": 6470,
      "Ġmanip": 6471,
      "Ġunderlying": 6472,
      "Ġ75": 6473,
      "Ġwriter": 6474,
      "Ġrank": 6475,
      "Ġoverl": 6476,
      "Ġhypothes": 6477,
      "orith": 6478,
      "Ġnone": 6479,
      "Ġ1996": 6480,
      "Ġframework": 6481,
      "Ġcrow": 6482,
      "Ġpapers": 6483,
      "Ġkit": 6484,
      "Ġ1993": 6485,
      ".âĢĻ": 6486,
      "ĠDig": 6487,
      "Ġpolitics": 6488,
      "Ġaudience": 6489,
      "igan": 6490,
      "acing": 6491,
      "Ġchick": 6492,
      "Ġskill": 6493,
      "Ġantibiot": 6494,
      "79": 6495,
      "gans": 6496,
      "rite": 6497,
      "Ġrefuge": 6498,
      "BS": 6499,
      "rovers": 6500,
      "Ġtrained": 6501,
      "cling": 6502,
      "Ġdestruction": 6503,
      "Ġmechanisms": 6504,
      "Ġestimates": 6505,
      "Ġexplanation": 6506,
      "Ġchain": 6507,
      "espread": 6508,
      "CD": 6509,
      "Ġprove": 6510,
      "weight": 6511,
      "othe": 6512,
      "Ġpreval": 6513,
      "65": 6514,
      "Ġrising": 6515,
      "ĠHill": 6516,
      "Ġgenerations": 6517,
      "aska": 6518,
      "Ġblow": 6519,
      "ĠGr": 6520,
      "ĠLook": 6521,
      "Ġrow": 6522,
      "Ġ2016": 6523,
      "Ġfung": 6524,
      "Ġeld": 6525,
      "ĠCreat": 6526,
      "Ġ400": 6527,
      "Ġphilosophy": 6528,
      "01": 6529,
      "mes": 6530,
      "rey": 6531,
      "Ġcloud": 6532,
      "----": 6533,
      "Ġbiggest": 6534,
      "Ġrivers": 6535,
      "ĠÂ·": 6536,
      "uels": 6537,
      "Ġlake": 6538,
      "Ġpurchase": 6539,
      "Ġarrest": 6540,
      "Ġprev": 6541,
      "Ġacknow": 6542,
      "Ġswim": 6543,
      "reland": 6544,
      "Ġgluc": 6545,
      "Ġoptim": 6546,
      "Ġsight": 6547,
      "ĠLar": 6548,
      "Ġvirtual": 6549,
      "Ġobesity": 6550,
      "Ġwhatever": 6551,
      "ĠForm": 6552,
      "Ġpoison": 6553,
      "Ġholding": 6554,
      "Ġinstruments": 6555,
      "41": 6556,
      "Ġath": 6557,
      "ĠBill": 6558,
      "that": 6559,
      "Ġmarried": 6560,
      "Ġintake": 6561,
      "Ġfrequent": 6562,
      "yal": 6563,
      "Ġbrand": 6564,
      "Ġlect": 6565,
      "ĠExam": 6566,
      "ĠPlant": 6567,
      "Ġturns": 6568,
      "Ġrecognition": 6569,
      "ĠAtlantic": 6570,
      "Ġtexts": 6571,
      "ventions": 6572,
      "Ġpassage": 6573,
      "Ġemployed": 6574,
      "Ġbeliefs": 6575,
      "Ġsacr": 6576,
      "ĠMartin": 6577,
      "ĠGeorgia": 6578,
      "itative": 6579,
      "ĠTable": 6580,
      "imens": 6581,
      "utch": 6582,
      "ĠEastern": 6583,
      "Ġentered": 6584,
      "Ġasthma": 6585,
      "Ġowners": 6586,
      "Ġofficers": 6587,
      "ĠDirector": 6588,
      "such": 6589,
      "Ġille": 6590,
      "Ġinhib": 6591,
      "Ġneck": 6592,
      "aked": 6593,
      "Ġpublication": 6594,
      "Ġprogramming": 6595,
      "Ġwalking": 6596,
      "Ġinstructions": 6597,
      "hered": 6598,
      "etime": 6599,
      "agon": 6600,
      "Ġexpansion": 6601,
      "Ġdrawn": 6602,
      "kins": 6603,
      "Ġfurn": 6604,
      "Ġmold": 6605,
      "Ġmeth": 6606,
      "asive": 6607,
      "irt": 6608,
      "Ġregul": 6609,
      "example": 6610,
      "Ġvolt": 6611,
      "Ġmm": 6612,
      "ĠMel": 6613,
      "ibl": 6614,
      "Ġaccident": 6615,
      "Ġhealthcare": 6616,
      "Ġfighting": 6617,
      "HA": 6618,
      "rary": 6619,
      "ĠBr": 6620,
      "ĠNeg": 6621,
      "Ġboost": 6622,
      "Ġarrange": 6623,
      "OL": 6624,
      "iodiversity": 6625,
      "Ġoperate": 6626,
      "Ġcircle": 6627,
      "Ġdischar": 6628,
      "Ġcoastal": 6629,
      "Ġcultures": 6630,
      "Ġinvolving": 6631,
      "Ġfacility": 6632,
      "Ġastronom": 6633,
      "een": 6634,
      "Ġelectro": 6635,
      "hyth": 6636,
      "fortunately": 6637,
      "ĠFund": 6638,
      "ighter": 6639,
      "Ġshop": 6640,
      "Ġusage": 6641,
      "Ġregulations": 6642,
      "Ġflo": 6643,
      "Ġmedic": 6644,
      "Ġinher": 6645,
      "ĠRom": 6646,
      "Ġfever": 6647,
      "ĠSuper": 6648,
      "42": 6649,
      "Ar": 6650,
      "eless": 6651,
      "usal": 6652,
      "Ġacres": 6653,
      "Ġdistur": 6654,
      "azing": 6655,
      "how": 6656,
      "word": 6657,
      "Ġmos": 6658,
      "ishop": 6659,
      "brew": 6660,
      "ĠIreland": 6661,
      "ums": 6662,
      "oston": 6663,
      "Ġraw": 6664,
      "Ġinteractions": 6665,
      "ivery": 6666,
      "Ġtons": 6667,
      "stone": 6668,
      "Ġcompounds": 6669,
      "Ġdownload": 6670,
      "gov": 6671,
      "ĠFurthermore": 6672,
      "Ġfasc": 6673,
      "ĠCopy": 6674,
      "Ġmarkets": 6675,
      "ĠOrig": 6676,
      "Ġearthqu": 6677,
      "Ġinjuries": 6678,
      "Ġmicrob": 6679,
      "Ġdivision": 6680,
      "Ġwidespread": 6681,
      "Ġneither": 6682,
      "Ġsports": 6683,
      "Ġevil": 6684,
      "ĠResearchers": 6685,
      "cher": 6686,
      "Ġguarant": 6687,
      "Ġarchae": 6688,
      "ĠKey": 6689,
      "Ġcats": 6690,
      "orders": 6691,
      "Ġagreed": 6692,
      "ĠHam": 6693,
      "Ġzero": 6694,
      "gu": 6695,
      "Ġmac": 6696,
      "ctive": 6697,
      "Ġconclusion": 6698,
      "ĠBab": 6699,
      "Ġdeclared": 6700,
      "Ġadministr": 6701,
      "gs": 6702,
      "Ġped": 6703,
      "abled": 6704,
      "ĠJo": 6705,
      "Ġpercentage": 6706,
      "Ġcreative": 6707,
      "Ġphoto": 6708,
      "Ġjoin": 6709,
      "Ġrocks": 6710,
      "Ġholds": 6711,
      "Ġlayers": 6712,
      "Ġinstalled": 6713,
      "Ġescape": 6714,
      "Ġstable": 6715,
      "Ġfeeding": 6716,
      "Ġdrain": 6717,
      "Ġsurfaces": 6718,
      "Ġinsulin": 6719,
      "ĠYoung": 6720,
      "Ġplanets": 6721,
      "ĠOhio": 6722,
      "Ġmand": 6723,
      "ĠRome": 6724,
      "Ġartificial": 6725,
      "Ġcoffee": 6726,
      "oir": 6727,
      "Ġahead": 6728,
      "Ġpounds": 6729,
      "Ġmood": 6730,
      "ushed": 6731,
      "ĠUt": 6732,
      "Ġtransf": 6733,
      "ĠScott": 6734,
      "liest": 6735,
      "Ġcos": 6736,
      "Ġpup": 6737,
      "ĠPract": 6738,
      "ĠDown": 6739,
      "ĠLanguage": 6740,
      "Ġturb": 6741,
      "Ġorient": 6742,
      "Ġsole": 6743,
      "Ġmatters": 6744,
      "Ġmerely": 6745,
      "bour": 6746,
      "ether": 6747,
      "Ġneur": 6748,
      "ults": 6749,
      "Ġstring": 6750,
      "Ġwine": 6751,
      "ĠEqu": 6752,
      "Ġindicated": 6753,
      "Ġmeasurements": 6754,
      "Ġ00": 6755,
      "Ġcolour": 6756,
      "Ġcutting": 6757,
      "Ġadequate": 6758,
      "Ġboy": 6759,
      "itely": 6760,
      "Ġartists": 6761,
      "Ġdebt": 6762,
      "Ġrig": 6763,
      "plant": 6764,
      "achuse": 6765,
      "Ġentry": 6766,
      "Ġcamera": 6767,
      "Ġproportion": 6768,
      "bar": 6769,
      "Ġbees": 6770,
      "Ġscan": 6771,
      "IDS": 6772,
      "ĠEdward": 6773,
      "uracy": 6774,
      "Ġbreathing": 6775,
      "New": 6776,
      "ĠAge": 6777,
      "ĠMS": 6778,
      "Ġlaunched": 6779,
      "zil": 6780,
      "Ġnerve": 6781,
      "ĠAgency": 6782,
      "ĠBack": 6783,
      "Ġvalid": 6784,
      "Ġbattery": 6785,
      "iana": 6786,
      "Ġsupports": 6787,
      "ĠServices": 6788,
      "Ġdollars": 6789,
      "Ã¶": 6790,
      "ĠPop": 6791,
      "ĠVer": 6792,
      "ĠLow": 6793,
      "ella": 6794,
      "Ġassociation": 6795,
      "ĠNetwork": 6796,
      "itual": 6797,
      "Ġcovers": 6798,
      "Ġreform": 6799,
      "ĠRevolution": 6800,
      "cons": 6801,
      "tts": 6802,
      "ĠPet": 6803,
      "ĠWord": 6804,
      "Ġagents": 6805,
      "Ġdistributed": 6806,
      "Ġtrip": 6807,
      "hop": 6808,
      "rd": 6809,
      "Äģ": 6810,
      "Ġvac": 6811,
      "Ġcomposed": 6812,
      "Ġcolumn": 6813,
      "Ġsmoking": 6814,
      "Ġeditor": 6815,
      "while": 6816,
      "Ġdanger": 6817,
      "ĠSimilar": 6818,
      "?\"": 6819,
      "ented": 6820,
      "otion": 6821,
      "elesc": 6822,
      "ptic": 6823,
      "ĠHebrew": 6824,
      "Ġnegot": 6825,
      "UN": 6826,
      "UT": 6827,
      "fit": 6828,
      "opic": 6829,
      "Ġmodified": 6830,
      "Ġmatch": 6831,
      "ĠCoast": 6832,
      "achusetts": 6833,
      "Ġfashion": 6834,
      "ested": 6835,
      "Ġsmoke": 6836,
      "ĠArctic": 6837,
      "ĠSeveral": 6838,
      "greg": 6839,
      "Ġreactions": 6840,
      "Ġmachines": 6841,
      "Ġconven": 6842,
      "ĠEffect": 6843,
      "Ġputting": 6844,
      "acco": 6845,
      "Ġconsiderable": 6846,
      "Ġske": 6847,
      "esis": 6848,
      "Ġfabric": 6849,
      "ctor": 6850,
      "Ġdelay": 6851,
      "Ġmode": 6852,
      "Ġruns": 6853,
      "ĠNext": 6854,
      "Ġimprovement": 6855,
      "ĠHoly": 6856,
      "Ġourselves": 6857,
      "Ġseemed": 6858,
      "ĠAuthor": 6859,
      "reek": 6860,
      "Ġmeters": 6861,
      "elfare": 6862,
      "ĠMicro": 6863,
      "Ġfold": 6864,
      "ricts": 6865,
      "Ġpoem": 6866,
      "ĠAdv": 6867,
      "bec": 6868,
      "uts": 6869,
      "aded": 6870,
      "ĠBig": 6871,
      "Ġsupporting": 6872,
      "Ġhonor": 6873,
      "LA": 6874,
      "itter": 6875,
      "Ġment": 6876,
      "Ġstreet": 6877,
      "Ġapproved": 6878,
      "Ġuncertain": 6879,
      "Ġ1994": 6880,
      "Ġpassing": 6881,
      "Ġdemonstrate": 6882,
      "Ġbread": 6883,
      "Ġfer": 6884,
      "arn": 6885,
      "Ġwasn": 6886,
      "Ġenforce": 6887,
      "Ġtheme": 6888,
      "Ġcrew": 6889,
      "Ġphysics": 6890,
      "Ġhistoric": 6891,
      "Ġrecommendations": 6892,
      "Ġmissing": 6893,
      "Ġcategories": 6894,
      ")|": 6895,
      "then": 6896,
      "ulty": 6897,
      "Ġindependence": 6898,
      "Ġcontrovers": 6899,
      "ĠUnfortunately": 6900,
      "ĠDistrict": 6901,
      "umps": 6902,
      "Ġspok": 6903,
      "Ġmessages": 6904,
      "ĠForest": 6905,
      "Ġvictims": 6906,
      "ĠAdditionally": 6907,
      "Ġproof": 6908,
      "Ġhero": 6909,
      "quit": 6910,
      "hesis": 6911,
      "Ġslave": 6912,
      "Ġannounced": 6913,
      "cyclopedia": 6914,
      "asty": 6915,
      "Ġmaintaining": 6916,
      "Ġmechanical": 6917,
      "Ġcapture": 6918,
      "Ġcustomers": 6919,
      "Ġfavorite": 6920,
      "urt": 6921,
      "ĠMethod": 6922,
      "ĠNon": 6923,
      "ĠLess": 6924,
      "ixture": 6925,
      "ĠBul": 6926,
      "Ġdisaster": 6927,
      "aph": 6928,
      "Ġcentre": 6929,
      "Ġminute": 6930,
      "Ġmagnetic": 6931,
      "Ġbranches": 6932,
      "Ġalgorith": 6933,
      "Ġlifestyle": 6934,
      "âĢĻ.": 6935,
      "lishing": 6936,
      "Ġopposed": 6937,
      "Ġstrongly": 6938,
      "ĠCommunity": 6939,
      "aud": 6940,
      "hav": 6941,
      "rays": 6942,
      "ĠNever": 6943,
      "alls": 6944,
      "Ġconnections": 6945,
      "Ġconsumer": 6946,
      "Ġclaimed": 6947,
      "Ġbutter": 6948,
      "ĠConst": 6949,
      "ĠIrish": 6950,
      "Ġcm": 6951,
      "ĠEp": 6952,
      "Ġaband": 6953,
      "Ġdefend": 6954,
      "Ã³": 6955,
      "icious": 6956,
      "Ġhabits": 6957,
      "ishment": 6958,
      "airy": 6959,
      "Ġcriteria": 6960,
      "ourage": 6961,
      "84": 6962,
      "but": 6963,
      "gers": 6964,
      "Ġelected": 6965,
      "roduction": 6966,
      "ĠSecurity": 6967,
      "Ġfro": 6968,
      "Ġongoing": 6969,
      "ĠCho": 6970,
      "Ġreceiving": 6971,
      "being": 6972,
      "Ġcav": 6973,
      "Ġtea": 6974,
      "Ġbranch": 6975,
      "ĠOpen": 6976,
      "cribed": 6977,
      "06": 6978,
      "icy": 6979,
      "Ġrepair": 6980,
      "Ġlegs": 6981,
      "Ġdiagnosed": 6982,
      "Ġsteel": 6983,
      "VID": 6984,
      "Ġclient": 6985,
      "Ġattempts": 6986,
      "Ġintegrated": 6987,
      "Ġangle": 6988,
      "Ġprincipal": 6989,
      "Ġforget": 6990,
      "Ġenemy": 6991,
      "Ġmanif": 6992,
      "Ġpresents": 6993,
      "Ġartist": 6994,
      "He": 6995,
      "eren": 6996,
      "ipedia": 6997,
      "Ġdoi": 6998,
      "Ġfunctional": 6999,
      "Ġvariables": 7000,
      "Ġinhabit": 7001,
      "oom": 7002,
      "Ġdose": 7003,
      "ĠChapter": 7004,
      "Ġrenewable": 7005,
      "RA": 7006,
      "Ġsurve": 7007,
      "Ġframe": 7008,
      "ĠMassachusetts": 7009,
      "ifts": 7010,
      "oven": 7011,
      "Ġtheore": 7012,
      "Ġdensity": 7013,
      "ĠPage": 7014,
      "earing": 7015,
      "Ġflav": 7016,
      "Ġsatellite": 7017,
      "Ġhusband": 7018,
      "Ġteen": 7019,
      "Ġrarely": 7020,
      "Ġnewly": 7021,
      "Ġhighlight": 7022,
      "Ġslavery": 7023,
      "Ġinflammation": 7024,
      "ĠAdministration": 7025,
      "ĠFrancisco": 7026,
      "Ġtub": 7027,
      "Ġended": 7028,
      "unicip": 7029,
      "Ġcompris": 7030,
      "Ġedition": 7031,
      "Ġ65": 7032,
      "oding": 7033,
      "Ġ1992": 7034,
      "Ġhorses": 7035,
      "uality": 7036,
      "Ġblocks": 7037,
      "Ġearn": 7038,
      "ĠColl": 7039,
      "Ġcompetition": 7040,
      "Ġgradually": 7041,
      "TM": 7042,
      "Ġstroke": 7043,
      "Ġdefense": 7044,
      "yles": 7045,
      "Ġusual": 7046,
      "Ġundert": 7047,
      "Ġdesigns": 7048,
      "Ġasking": 7049,
      "03": 7050,
      "Ġtropical": 7051,
      "Ġstrict": 7052,
      "ĠRock": 7053,
      "theless": 7054,
      "Ġengaged": 7055,
      "ĠConfed": 7056,
      "Ġbanks": 7057,
      "ĠLy": 7058,
      "ĠOl": 7059,
      "ĠComput": 7060,
      "arsh": 7061,
      "ĠSil": 7062,
      "Ġalter": 7063,
      "Ġcompare": 7064,
      "Ġwriters": 7065,
      "Ġinterpre": 7066,
      "Ġislands": 7067,
      "ĠPen": 7068,
      "Ġmarks": 7069,
      "Ġmaintained": 7070,
      "Ġsilver": 7071,
      "ĠAngel": 7072,
      "Ġgranted": 7073,
      "rat": 7074,
      "she": 7075,
      "Ġnervous": 7076,
      "CS": 7077,
      "Ġmice": 7078,
      "Ġholid": 7079,
      "ĠLu": 7080,
      "Ġowner": 7081,
      "Ġfulf": 7082,
      "ĠOrganization": 7083,
      "Ġtheories": 7084,
      "Ġmining": 7085,
      "Ġconfidence": 7086,
      "Ġbiology": 7087,
      "Ġrealize": 7088,
      "DP": 7089,
      "Ġdrought": 7090,
      "ĠRh": 7091,
      "Ġpref": 7092,
      "Ġvarieties": 7093,
      "Ġturning": 7094,
      "72": 7095,
      "Ġthy": 7096,
      "oples": 7097,
      "Ġaccuracy": 7098,
      "erman": 7099,
      "Ġjudge": 7100,
      "ĠWindows": 7101,
      "When": 7102,
      "Ġorbit": 7103,
      "ĠBoston": 7104,
      "Ġdelivery": 7105,
      "ĠArticle": 7106,
      "Ġevaluation": 7107,
      "ĠScientists": 7108,
      "Ġring": 7109,
      "Ġ1950": 7110,
      "Ġdesired": 7111,
      "Ġsmooth": 7112,
      "ano": 7113,
      "ĠDou": 7114,
      "riers": 7115,
      "ĠOnline": 7116,
      "Ġflower": 7117,
      "ĠParty": 7118,
      "ĠSurvey": 7119,
      "Ġrice": 7120,
      "Ġminerals": 7121,
      "Ġinsert": 7122,
      "Ġvulnerable": 7123,
      "va": 7124,
      "ĠSund": 7125,
      "Ġresident": 7126,
      "Ġcommission": 7127,
      "Ġ33": 7128,
      "Ġproved": 7129,
      "Ġscientist": 7130,
      "ĠWithout": 7131,
      "ymph": 7132,
      "Ġchlor": 7133,
      "ĠSafety": 7134,
      "Ġstre": 7135,
      "ĠItaly": 7136,
      "Ġfiber": 7137,
      "ĠMen": 7138,
      "Ġdependent": 7139,
      "ĠVictor": 7140,
      "Ġabnormal": 7141,
      "peror": 7142,
      "Ġseeking": 7143,
      "ĠSpring": 7144,
      "Ġevaluate": 7145,
      "Ġparallel": 7146,
      "ĠFace": 7147,
      "Ġpartners": 7148,
      "Ġabsence": 7149,
      "ĠPerhaps": 7150,
      "Ġcommitted": 7151,
      "ait": 7152,
      "otton": 7153,
      "osion": 7154,
      "Ġcooling": 7155,
      "Ġfairly": 7156,
      "64": 7157,
      "ĠSection": 7158,
      "Ġcarb": 7159,
      "Ġcaptured": 7160,
      "vin": 7161,
      "Ġgiant": 7162,
      "Ġconqu": 7163,
      "ĠStar": 7164,
      "Ġmicrosc": 7165,
      "Ġtrouble": 7166,
      "Ġcontemporary": 7167,
      "PR": 7168,
      "Ġstatistics": 7169,
      "Ġemotions": 7170,
      "ĠBrazil": 7171,
      "Ġphenomenon": 7172,
      "ĠGulf": 7173,
      "Ġperm": 7174,
      "Ġacute": 7175,
      "Ġassume": 7176,
      "Ġobjective": 7177,
      "Ġnitrogen": 7178,
      "htt": 7179,
      "itals": 7180,
      "ĠAS": 7181,
      "Ġspending": 7182,
      "ĠYes": 7183,
      "Ġreliable": 7184,
      "ĠForce": 7185,
      "Ġfinished": 7186,
      "Ġfishing": 7187,
      "ĠKingdom": 7188,
      "Ġinvestigation": 7189,
      "ĠLiter": 7190,
      "Ġscore": 7191,
      "Ġparticipation": 7192,
      "Ġchallenging": 7193,
      "Ġquarter": 7194,
      "Ġconj": 7195,
      "ĠPur": 7196,
      "abul": 7197,
      "ĠNov": 7198,
      "Ġrelax": 7199,
      "Ġoutcome": 7200,
      "Ġrelief": 7201,
      "Ġlaunch": 7202,
      "Ġgalax": 7203,
      "Ġsought": 7204,
      "adder": 7205,
      "Ġcenters": 7206,
      "ĠNeu": 7207,
      "Ġpreparation": 7208,
      ".'": 7209,
      "ĠWall": 7210,
      "angle": 7211,
      "Ġeffectiveness": 7212,
      "ĠMean": 7213,
      "Ġgap": 7214,
      "Ġorgans": 7215,
      "ĠGrand": 7216,
      "ounter": 7217,
      "Ġseconds": 7218,
      "Ġlaid": 7219,
      "herent": 7220,
      "irus": 7221,
      "Ġarray": 7222,
      "ĠChange": 7223,
      "ĠScot": 7224,
      "Ġstrike": 7225,
      "Ġmoisture": 7226,
      "net": 7227,
      "ĠPot": 7228,
      "Ġplus": 7229,
      "igned": 7230,
      "Ġpron": 7231,
      "Ġglucose": 7232,
      "Ġpositions": 7233,
      "Cl": 7234,
      "ĠSand": 7235,
      "Ġtranslation": 7236,
      "Ġautism": 7237,
      "Ġtemple": 7238,
      "Ġdamaged": 7239,
      "Ġsubstances": 7240,
      "Ġordered": 7241,
      "Ġassigned": 7242,
      "ĠColorado": 7243,
      "73": 7244,
      "Ġtraum": 7245,
      "Ġtransp": 7246,
      "Ġexamination": 7247,
      "Ġaccessible": 7248,
      "ĠConservation": 7249,
      "real": 7250,
      "Ġlie": 7251,
      "ĠMah": 7252,
      "ĠAND": 7253,
      "outs": 7254,
      "Ġrespir": 7255,
      "Ġcollaboration": 7256,
      "ĠMoon": 7257,
      "Ġvan": 7258,
      "Ġperception": 7259,
      "Ġcorner": 7260,
      "rooms": 7261,
      "asant": 7262,
      "ĠEU": 7263,
      "Ġfourth": 7264,
      "Ġencouraged": 7265,
      "Ġimplications": 7266,
      "Ġcarrying": 7267,
      "ENT": 7268,
      "html": 7269,
      "83": 7270,
      "df": 7271,
      "Ġconfirmed": 7272,
      "Ġcriminal": 7273,
      "TP": 7274,
      "ĠEst": 7275,
      "ĠSecret": 7276,
      "Ġcategory": 7277,
      "alog": 7278,
      "ĠNut": 7279,
      "Ġprovider": 7280,
      "Ġcombat": 7281,
      "Ġfeedback": 7282,
      "Ġrespectively": 7283,
      "Ġnest": 7284,
      "ĠDen": 7285,
      "Ġroughly": 7286,
      "dule": 7287,
      "Ġsigned": 7288,
      "Ġhousing": 7289,
      "ĠMichigan": 7290,
      "Ġmembrane": 7291,
      "ĠHand": 7292,
      "Ġ2017": 7293,
      "ĠSym": 7294,
      "Ġwait": 7295,
      "Ġmolecular": 7296,
      "ĠType": 7297,
      "Ġpolar": 7298,
      "Ġfemales": 7299,
      "Ġsubsequent": 7300,
      "ĠSir": 7301,
      "âĢĻ,": 7302,
      "Ġearliest": 7303,
      "Ġburning": 7304,
      "Ġtowns": 7305,
      "Ġpanel": 7306,
      "Ġunusual": 7307,
      "CA": 7308,
      "Ġrab": 7309,
      "Ġboys": 7310,
      "Ġpropos": 7311,
      "Ġmoves": 7312,
      "Ġpsychological": 7313,
      "Ġexperimental": 7314,
      "Ġdates": 7315,
      "ĠTre": 7316,
      "ograp": 7317,
      "Ġcompens": 7318,
      "Ġclothing": 7319,
      "Ġtaxes": 7320,
      "________": 7321,
      ".).": 7322,
      "Ġbridge": 7323,
      "ĠTV": 7324,
      "Ġserving": 7325,
      "bra": 7326,
      "making": 7327,
      "Ġtube": 7328,
      "Ġprinted": 7329,
      "Ġconcentrations": 7330,
      "Ġsatisf": 7331,
      "Sp": 7332,
      "ĠSolar": 7333,
      "Ġforg": 7334,
      "Ġproceed": 7335,
      "Ġrose": 7336,
      "Ġfarming": 7337,
      "Ġaudio": 7338,
      "Ġtribes": 7339,
      "Ġid": 7340,
      "amins": 7341,
      "ĠYear": 7342,
      "icted": 7343,
      "Ġspaces": 7344,
      "Ġplenty": 7345,
      "nee": 7346,
      "rison": 7347,
      "%.": 7348,
      "Ġtight": 7349,
      "Ġsession": 7350,
      "roat": 7351,
      "ĠTom": 7352,
      "ĠSup": 7353,
      "ĠNaz": 7354,
      "74": 7355,
      "Ġov": 7356,
      "isk": 7357,
      "ĠTim": 7358,
      "Ġdirected": 7359,
      "Ġvisitors": 7360,
      "For": 7361,
      "ĠHy": 7362,
      "Ġfacing": 7363,
      "Ġcaught": 7364,
      "Ġfed": 7365,
      "ĠSing": 7366,
      "Ġouter": 7367,
      "Ġthanks": 7368,
      "Ġessentially": 7369,
      "Un": 7370,
      "chen": 7371,
      "hedule": 7372,
      "ĠIran": 7373,
      "Ġsharp": 7374,
      "Ġadds": 7375,
      "ĠOxford": 7376,
      "Ġfract": 7377,
      "ĠSource": 7378,
      "operation": 7379,
      "hips": 7380,
      "Ġgained": 7381,
      "orted": 7382,
      "ounded": 7383,
      "Ġblind": 7384,
      "Ġsheet": 7385,
      "Ġsettings": 7386,
      "59": 7387,
      "71": 7388,
      "Ġexclus": 7389,
      "Ġran": 7390,
      "ĠItalian": 7391,
      "%)": 7392,
      "iary": 7393,
      "Ġtut": 7394,
      "Ġdealing": 7395,
      "Ġguard": 7396,
      "Ġexercises": 7397,
      "Ġbrings": 7398,
      "ĠFire": 7399,
      "Ġpharm": 7400,
      "asts": 7401,
      "Ġprominent": 7402,
      "Ġconcluded": 7403,
      "ĠCopyright": 7404,
      "Ġstead": 7405,
      "ivered": 7406,
      "ĠLib": 7407,
      "ogether": 7408,
      "Ġroles": 7409,
      "ĠJeff": 7410,
      "81": 7411,
      "Ġhole": 7412,
      "Ġintense": 7413,
      "Ġpreventing": 7414,
      "ĠSwed": 7415,
      "br": 7416,
      "ĠBus": 7417,
      "Ġtissues": 7418,
      "Ġkilomet": 7419,
      "Ġcited": 7420,
      "ĠPolic": 7421,
      "ruption": 7422,
      "ĠView": 7423,
      "Ġsignificance": 7424,
      "Ġvaccines": 7425,
      "Ġcomplicated": 7426,
      "ĠModel": 7427,
      "Ph": 7428,
      "Ġ;": 7429,
      "ĠPoint": 7430,
      "Ġphotos": 7431,
      "ĠPrinc": 7432,
      "Ġembry": 7433,
      ":||": 7434,
      "bles": 7435,
      "Ġdental": 7436,
      "amine": 7437,
      "Ġroyal": 7438,
      "Ġplanned": 7439,
      "Ġindustries": 7440,
      "Ġconstantly": 7441,
      "tles": 7442,
      "ĠLittle": 7443,
      "rous": 7444,
      "Ġmeal": 7445,
      "Ġdifficulties": 7446,
      "ĠTreatment": 7447,
      "Ġsplit": 7448,
      "',": 7449,
      "Sc": 7450,
      "produ": 7451,
      "Ġbeans": 7452,
      "aming": 7453,
      "Ġpermission": 7454,
      "Ġworry": 7455,
      "Ġagent": 7456,
      "Ġ55": 7457,
      "Ġformula": 7458,
      "Ġcourts": 7459,
      "Ġbeings": 7460,
      "ĠCell": 7461,
      "Ġarts": 7462,
      "rowing": 7463,
      "ĠPrevention": 7464,
      "Ġtelevision": 7465,
      "Ġtraditions": 7466,
      "hent": 7467,
      "ĠLo": 7468,
      "arents": 7469,
      "ĠModern": 7470,
      "ĠGall": 7471,
      "Ġadm": 7472,
      "ĠSenate": 7473,
      "Ġsettlement": 7474,
      "itivity": 7475,
      "Ġspin": 7476,
      "agram": 7477,
      "Ġpeak": 7478,
      "Ġmaybe": 7479,
      "ĠIndust": 7480,
      "rolled": 7481,
      "Ġpregnant": 7482,
      "ĠStart": 7483,
      "Ġloved": 7484,
      "ĠMult": 7485,
      "emb": 7486,
      "Ġjump": 7487,
      "Ġinfant": 7488,
      "Ġcareful": 7489,
      "ĠCentre": 7490,
      "ĠChristians": 7491,
      "ĠPolit": 7492,
      "Ġingredients": 7493,
      "aired": 7494,
      "rox": 7495,
      "Ġroads": 7496,
      "Ġdesert": 7497,
      "Ġmg": 7498,
      "icular": 7499,
      "sen": 7500,
      "Ġpit": 7501,
      "Ġbath": 7502,
      "Ġhun": 7503,
      "ĠCorn": 7504,
      "ĠKn": 7505,
      "Ġcharacterized": 7506,
      "print": 7507,
      "Ġinformed": 7508,
      "Ġlaser": 7509,
      "ĠHospital": 7510,
      "ĠDog": 7511,
      "Ġphosph": 7512,
      "ĠCOVID": 7513,
      "Ġbabies": 7514,
      ")||": 7515,
      "Ġmine": 7516,
      "ĠInit": 7517,
      "onomy": 7518,
      "Ġequally": 7519,
      "ucky": 7520,
      "Ġexception": 7521,
      "Ġconversation": 7522,
      "Ġvoltage": 7523,
      "ette": 7524,
      "ĠIV": 7525,
      "Ġinterior": 7526,
      "Ġparas": 7527,
      "Ġsuperior": 7528,
      "ĠVitamin": 7529,
      "02": 7530,
      "ani": 7531,
      "Ġmales": 7532,
      "Ġinfect": 7533,
      "Ġcooking": 7534,
      "Ġdramatic": 7535,
      "onia": 7536,
      "ĠSar": 7537,
      "Ġexamined": 7538,
      "Ġanalys": 7539,
      "Ġinfluenced": 7540,
      "ĠMinister": 7541,
      "Ġdiameter": 7542,
      "car": 7543,
      "uan": 7544,
      "itarian": 7545,
      "Ġrely": 7546,
      "Ġstations": 7547,
      "opes": 7548,
      "ĠWal": 7549,
      "ĠThanks": 7550,
      "Ġattitude": 7551,
      "Ġhappening": 7552,
      "ĠWorks": 7553,
      "Ġneighborhood": 7554,
      "ĠDesc": 7555,
      "Ġdispos": 7556,
      "Ġmountains": 7557,
      "Ġphysician": 7558,
      "Ġbomb": 7559,
      "Ġhosp": 7560,
      "Ġnose": 7561,
      "ĠAP": 7562,
      "Ġpartnership": 7563,
      "Ġceremon": 7564,
      "IM": 7565,
      "ilation": 7566,
      "sell": 7567,
      "ĠBal": 7568,
      "aws": 7569,
      "Ġstatements": 7570,
      "ĠIss": 7571,
      "Ġrecover": 7572,
      "Ġerrors": 7573,
      "Ġofficer": 7574,
      "Ġremoval": 7575,
      "rav": 7576,
      "isted": 7577,
      "istical": 7578,
      "Ġcham": 7579,
      "Ġplot": 7580,
      "ĠJac": 7581,
      "04": 7582,
      "CR": 7583,
      "iological": 7584,
      "Ġreduces": 7585,
      "raining": 7586,
      "Ġtrends": 7587,
      "Ġmortality": 7588,
      "NS": 7589,
      "ĠPak": 7590,
      "Ġproven": 7591,
      "ĠWhich": 7592,
      "Ġhormone": 7593,
      "Ġsubstantial": 7594,
      "ĠDO": 7595,
      "Ġvoc": 7596,
      "Ġeveryday": 7597,
      "from": 7598,
      "ady": 7599,
      "Ġoptical": 7600,
      "Ġrect": 7601,
      "Ġheating": 7602,
      "essions": 7603,
      "Ġconfig": 7604,
      "Ġsunlight": 7605,
      "Ġdriven": 7606,
      "ĠAgain": 7607,
      "Ġaccompan": 7608,
      "Ġmetabol": 7609,
      "Ġgrain": 7610,
      "including": 7611,
      "ĠDev": 7612,
      "Ġcoc": 7613,
      "esides": 7614,
      "Ġevolved": 7615,
      "iner": 7616,
      "oured": 7617,
      "ounce": 7618,
      "ĠAM": 7619,
      "Ġdeeper": 7620,
      "Ġfinds": 7621,
      "Ġdescript": 7622,
      "Ġengineers": 7623,
      "Ġmeasurement": 7624,
      "Ġbringing": 7625,
      "Ġbeauty": 7626,
      "oul": 7627,
      "Ġpreced": 7628,
      "Ġregarded": 7629,
      "Ġreveal": 7630,
      "Ġmathematics": 7631,
      "tes": 7632,
      "Ġnice": 7633,
      "ĠDom": 7634,
      "ptions": 7635,
      "Ġextend": 7636,
      "ommod": 7637,
      "Ġpoetry": 7638,
      "ĠIdent": 7639,
      "Ġremind": 7640,
      "Ġinterventions": 7641,
      "ĠBooks": 7642,
      "eath": 7643,
      "ĠLead": 7644,
      "Ġspectrum": 7645,
      "gical": 7646,
      "last": 7647,
      "Ġintent": 7648,
      "ĠAsk": 7649,
      "Ġbreeding": 7650,
      "Ġgram": 7651,
      "ĠDC": 7652,
      "etary": 7653,
      "Ġexceed": 7654,
      "fts": 7655,
      "anes": 7656,
      "icity": 7657,
      "Ġtumor": 7658,
      "gence": 7659,
      "eness": 7660,
      "Ġclar": 7661,
      "Ġopposition": 7662,
      "Ġuniversal": 7663,
      "pes": 7664,
      "zer": 7665,
      "Ġcommittee": 7666,
      "Ġorb": 7667,
      "Ġvs": 7668,
      "Ġdism": 7669,
      "Ġgravity": 7670,
      "Ġcommunications": 7671,
      "Ġwarning": 7672,
      "Ġjur": 7673,
      "Ġserves": 7674,
      "Ġobserve": 7675,
      "Ġintest": 7676,
      "Ġbiom": 7677,
      "Ġguidance": 7678,
      "Ġchromos": 7679,
      "56": 7680,
      "82": 7681,
      "Ġwheel": 7682,
      "Ġplane": 7683,
      "class": 7684,
      "Ġdelivered": 7685,
      "Ġswitch": 7686,
      "Ġsuffered": 7687,
      "Ġimplemented": 7688,
      "Ġcovering": 7689,
      "Ġepis": 7690,
      "Ġbreath": 7691,
      "Ex": 7692,
      "ĠEPA": 7693,
      "Ġknowing": 7694,
      "Ġanywhere": 7695,
      "Ġcalling": 7696,
      "ographical": 7697,
      "Ġseparated": 7698,
      "ĠAntar": 7699,
      "Ġadvantages": 7700,
      ".||": 7701,
      "Ġoffering": 7702,
      "Ġcharged": 7703,
      "Ġteams": 7704,
      "ĠAvoid": 7705,
      "Ġinterpretation": 7706,
      "Ġdistricts": 7707,
      "Ġcleaning": 7708,
      "ĠProtection": 7709,
      "Ġexpanded": 7710,
      "Ġcopyright": 7711,
      "lvan": 7712,
      "Ġlists": 7713,
      "Ġalph": 7714,
      "earch": 7715,
      "Ġincred": 7716,
      "....": 7717,
      "Ġproviders": 7718,
      "ĠPalest": 7719,
      "medi": 7720,
      "ĠLocal": 7721,
      "Ġfaced": 7722,
      "Ġbond": 7723,
      "Ġye": 7724,
      "ĠBang": 7725,
      "Ġcoverage": 7726,
      "Ġvisited": 7727,
      "Ġconsidering": 7728,
      "Ġcattle": 7729,
      "ĠQueen": 7730,
      "mod": 7731,
      "Ġwithd": 7732,
      "Ġadvert": 7733,
      "Ġconcerning": 7734,
      "Ġargue": 7735,
      "Ġinspired": 7736,
      "CT": 7737,
      "fl": 7738,
      "Ġles": 7739,
      "elph": 7740,
      "Ġworst": 7741,
      "Ġunion": 7742,
      "Ġexped": 7743,
      "Ġdemocracy": 7744,
      "Ġengines": 7745,
      "haust": 7746,
      "bell": 7747,
      "just": 7748,
      "Ġplain": 7749,
      "coming": 7750,
      "rin": 7751,
      "Ġbeat": 7752,
      "osh": 7753,
      "Ġobservation": 7754,
      "Ġisolated": 7755,
      "CE": 7756,
      "bel": 7757,
      "Ġchest": 7758,
      "ĠPortug": 7759,
      "Ġpand": 7760,
      "Ġdys": 7761,
      "ĠBureau": 7762,
      "Ġsus": 7763,
      "Ġpartner": 7764,
      "Ġvariation": 7765,
      "Ġfarms": 7766,
      "Ġcalories": 7767,
      "Ġstimul": 7768,
      "ĠEngineering": 7769,
      "writ": 7770,
      "ami": 7771,
      "eli": 7772,
      "quir": 7773,
      "Ġinitially": 7774,
      "Ġmes": 7775,
      "Ġstores": 7776,
      "Ġshock": 7777,
      "Ġheavily": 7778,
      "Ġthreatened": 7779,
      "hea": 7780,
      "ĠIndeed": 7781,
      "ĠObama": 7782,
      "ĠWhether": 7783,
      "eor": 7784,
      "mers": 7785,
      "Ġ(\"": 7786,
      "ĠOtt": 7787,
      "ultane": 7788,
      "Ġimmigrants": 7789,
      "Ġcharacteristic": 7790,
      "ĠEliz": 7791,
      "ĠSystems": 7792,
      "Ġillegal": 7793,
      "iat": 7794,
      "ĠSS": 7795,
      "ĠLight": 7796,
      "Ġpeoples": 7797,
      "ĠFollowing": 7798,
      "Ġvariations": 7799,
      "Ġaims": 7800,
      "Ġappointed": 7801,
      "ĠAL": 7802,
      "Ġreferences": 7803,
      "Ġsoul": 7804,
      "heimer": 7805,
      "Ġadvent": 7806,
      "ĠKar": 7807,
      "vard": 7808,
      "ĠCross": 7809,
      "thal": 7810,
      "abeth": 7811,
      "ecess": 7812,
      "endment": 7813,
      "ĠKansas": 7814,
      "ieval": 7815,
      "Ġplayer": 7816,
      "itic": 7817,
      "ĠUnlike": 7818,
      "Ġathlet": 7819,
      "Ġflying": 7820,
      "iments": 7821,
      "ĠSupreme": 7822,
      "'d": 7823,
      "ĠTry": 7824,
      "Ġgases": 7825,
      "ĠInvest": 7826,
      "Ġuncom": 7827,
      "Ġdemands": 7828,
      "hyd": 7829,
      "],": 7830,
      "ĠÐ": 7831,
      "Ġdisk": 7832,
      "Ġsales": 7833,
      "Ġtob": 7834,
      "soft": 7835,
      "Ġpointed": 7836,
      "Ġwrites": 7837,
      "sylvan": 7838,
      "Ġfocuses": 7839,
      "Ġhazard": 7840,
      "Ġweapons": 7841,
      "Ġfisher": 7842,
      "ĠLin": 7843,
      "Ġcontribution": 7844,
      "Ġ39": 7845,
      "Ġplayers": 7846,
      "Ġautomatically": 7847,
      "Ġdynamic": 7848,
      "Ġupdated": 7849,
      "ĠWildlife": 7850,
      "Ġsuscept": 7851,
      "arks": 7852,
      "ĠTri": 7853,
      "Ġmusical": 7854,
      "Ġsettled": 7855,
      "Ġimagine": 7856,
      "Ġpros": 7857,
      "Ġ1991": 7858,
      "ĠLee": 7859,
      "Ġliterary": 7860,
      "Ġinnovation": 7861,
      "09": 7862,
      "Ġ)": 7863,
      "Ġfest": 7864,
      "Ġreaching": 7865,
      "Ġscar": 7866,
      "Ġstronger": 7867,
      "onym": 7868,
      "Ġitem": 7869,
      "Ġenorm": 7870,
      "ĠOs": 7871,
      "ĠOper": 7872,
      "Ġmoderate": 7873,
      "Ġexcessive": 7874,
      "08": 7875,
      "nov": 7876,
      "oler": 7877,
      "Ġintensity": 7878,
      "Ġ1930": 7879,
      "Ġ37": 7880,
      "Ġdecor": 7881,
      "Ġstructural": 7882,
      "Ġcopper": 7883,
      "eut": 7884,
      "inates": 7885,
      "ĠHeart": 7886,
      "ĠHistorical": 7887,
      "Ġsenior": 7888,
      "http": 7889,
      "Ġcort": 7890,
      "ĠFarm": 7891,
      "aping": 7892,
      "anger": 7893,
      "Ġprovince": 7894,
      "ĠWeek": 7895,
      "Ġheads": 7896,
      "Ġgrid": 7897,
      "ĠFair": 7898,
      "ĠLater": 7899,
      "ĠJack": 7900,
      "obile": 7901,
      "ĠSpir": 7902,
      "Ġirrig": 7903,
      "mail": 7904,
      "Ġbag": 7905,
      "Ġmir": 7906,
      "Ġwheat": 7907,
      "Ġconsideration": 7908,
      "isdom": 7909,
      "Ġft": 7910,
      "Ġstuff": 7911,
      "ĠHom": 7912,
      "ĠHaving": 7913,
      "Ġunw": 7914,
      "Ġ95": 7915,
      "Ġirrit": 7916,
      "Ġcorrectly": 7917,
      "Ġkilling": 7918,
      "Ġsongs": 7919,
      "ĠAri": 7920,
      "Ġconce": 7921,
      "Ġevident": 7922,
      "Ġoverw": 7923,
      "Ġtreating": 7924,
      "ĠPlay": 7925,
      "Ġimprovements": 7926,
      "Ġfalls": 7927,
      "Ġthreats": 7928,
      "Ġscreening": 7929,
      "Ġemphasis": 7930,
      "reated": 7931,
      "olving": 7932,
      "Ġconstra": 7933,
      "Ġbeneath": 7934,
      "Ġlosses": 7935,
      "Ġsediment": 7936,
      "encing": 7937,
      "ĠCH": 7938,
      "amics": 7939,
      "ĠUr": 7940,
      "Ġaccommod": 7941,
      "Ġdetection": 7942,
      "ĠIslands": 7943,
      "Ġtobacco": 7944,
      "Ġfellow": 7945,
      "Ġprosp": 7946,
      "Ġalive": 7947,
      "Ġ34": 7948,
      "Ġ48": 7949,
      "Ġversions": 7950,
      "Ġcontributed": 7951,
      "ĠLaboratory": 7952,
      "ĠAlexander": 7953,
      "Ġshapes": 7954,
      "Ġspr": 7955,
      "atively": 7956,
      "Ġresearcher": 7957,
      "Ġinteractive": 7958,
      "Ġvideos": 7959,
      "ĠPakistan": 7960,
      "illa": 7961,
      "Ġspray": 7962,
      "Ġflour": 7963,
      "Ġidentification": 7964,
      "Ġviewed": 7965,
      "ĠJohnson": 7966,
      "ĠAgriculture": 7967,
      "brid": 7968,
      "Ġstopped": 7969,
      "Ġdecreased": 7970,
      "69": 7971,
      "oric": 7972,
      "Ġhall": 7973,
      "Ġdisrupt": 7974,
      "Ġelections": 7975,
      "Ġlinear": 7976,
      "Ġsteam": 7977,
      "cul": 7978,
      "Ġliteracy": 7979,
      "Ġnewspaper": 7980,
      "Ġthread": 7981,
      "Ġthereby": 7982,
      "Ġprotecting": 7983,
      "Ġaddressed": 7984,
      "Ġbigger": 7985,
      "Ġprinting": 7986,
      "ĠMexican": 7987,
      "ĠPennsylvan": 7988,
      "elve": 7989,
      "archy": 7990,
      "Ġmeasuring": 7991,
      "Ġmosquit": 7992,
      "DS": 7993,
      "Ġinterface": 7994,
      "Ġforming": 7995,
      "Ġprocessed": 7996,
      "Ġbullying": 7997,
      "adow": 7998,
      "Ġtemporary": 7999,
      "regon": 8000,
      "Ġvertical": 8001,
      "Ġfra": 8002,
      "Ġholes": 8003,
      "Ġseat": 8004,
      "Ġworship": 8005,
      "ĠAdam": 8006,
      "Ġprogramme": 8007,
      "Ġbreed": 8008,
      "Ġoccurring": 8009,
      "Ġreasonable": 8010,
      "Ġreserved": 8011,
      "ĠIce": 8012,
      "Ġterror": 8013,
      "Ġeru": 8014,
      "Ġacquired": 8015,
      "ĠMid": 8016,
      "Ġempt": 8017,
      "angered": 8018,
      "Ġboat": 8019,
      "ĠZeal": 8020,
      "Ġflows": 8021,
      "Ġrepresentation": 8022,
      "Ġcopies": 8023,
      "hus": 8024,
      "Ġpin": 8025,
      "Ġmixture": 8026,
      "agraph": 8027,
      "Ġresid": 8028,
      "Ġclock": 8029,
      "Ġconference": 8030,
      "Ġwindows": 8031,
      "Ġtargets": 8032,
      "Ġbegun": 8033,
      "CH": 8034,
      "olesc": 8035,
      "ĠFather": 8036,
      "Ġtechnological": 8037,
      "Ġritual": 8038,
      "Ġbelieves": 8039,
      "inois": 8040,
      "Ġelsewhere": 8041,
      "Ġinitiative": 8042,
      "Ġpilot": 8043,
      "Ġscheme": 8044,
      "ĠHawai": 8045,
      "And": 8046,
      "ba": 8047,
      "foot": 8048,
      "Ġdance": 8049,
      "Ġlip": 8050,
      "esthetic": 8051,
      "Ġrational": 8052,
      "ostic": 8053,
      "ĠEncyclopedia": 8054,
      "books": 8055,
      "Ġvitamins": 8056,
      "Ġexecutive": 8057,
      "Ġgro": 8058,
      "ĠObs": 8059,
      "action": 8060,
      "Ġindigenous": 8061,
      "Ġwelfare": 8062,
      "Ġdetected": 8063,
      "Ġestablishment": 8064,
      "edu": 8065,
      "Ġhence": 8066,
      "Ġcompound": 8067,
      "ritis": 8068,
      "Ġgrows": 8069,
      "ega": 8070,
      "Ġlowest": 8071,
      "Ġcomplications": 8072,
      "ĠJustice": 8073,
      "Ġtrigger": 8074,
      "ĠNavy": 8075,
      "effect": 8076,
      "lete": 8077,
      "ĠTO": 8078,
      "Ġrhyth": 8079,
      "ĠIndepend": 8080,
      "Ġsitting": 8081,
      "Ġchemistry": 8082,
      "Ġfalling": 8083,
      "Ã±": 8084,
      "ĠSet": 8085,
      "Ġconserv": 8086,
      "Ġsubt": 8087,
      "Ġtransmitted": 8088,
      "rity": 8089,
      "ĠPass": 8090,
      "ĠBa": 8091,
      "ĠOregon": 8092,
      "Ġquantity": 8093,
      "iture": 8094,
      "Ġfix": 8095,
      "Ġphrase": 8096,
      "ĠPennsylvania": 8097,
      "Ġfinger": 8098,
      "ĠBattle": 8099,
      "Ġpert": 8100,
      "ĠVan": 8101,
      "Ġremed": 8102,
      "ĠIslamic": 8103,
      "Ġelder": 8104,
      "urning": 8105,
      "ĠBu": 8106,
      "Ġglac": 8107,
      "Ġconfident": 8108,
      "Ġreward": 8109,
      "Ġchap": 8110,
      "pled": 8111,
      "Ġdisabilities": 8112,
      "Ġuniform": 8113,
      "ribe": 8114,
      "Ġregulation": 8115,
      "mann": 8116,
      "Ġboundaries": 8117,
      "07": 8118,
      "Ġsale": 8119,
      "ĠAff": 8120,
      "Ġhepat": 8121,
      "Ġovercome": 8122,
      "ĠConvention": 8123,
      "Ġswit": 8124,
      "ĠAssess": 8125,
      "Ġgeomet": 8126,
      "unicipal": 8127,
      "ĠPolicy": 8128,
      "'.": 8129,
      "ĠLim": 8130,
      "ailable": 8131,
      "Ġpreserve": 8132,
      "They": 8133,
      "Ġcorrel": 8134,
      "ĠCentury": 8135,
      "Ġregardless": 8136,
      "ĠEconomic": 8137,
      "ĠâĨĳ": 8138,
      "Ġlibr": 8139,
      "amination": 8140,
      "ĠDue": 8141,
      "ustain": 8142,
      "Ġmanufacturers": 8143,
      "Sh": 8144,
      "athered": 8145,
      "Ġstrain": 8146,
      "ĠDictionary": 8147,
      "Ġwouldn": 8148,
      "elescope": 8149,
      "Ġoverwhel": 8150,
      "omatic": 8151,
      "neys": 8152,
      "Ġequation": 8153,
      "Ġavailability": 8154,
      "ĠPeace": 8155,
      "Ġexhibit": 8156,
      "ĠIllinois": 8157,
      "Ġhunting": 8158,
      "ĠCambridge": 8159,
      "Ġparameters": 8160,
      "abulary": 8161,
      "ĠDutch": 8162,
      "ĠAlz": 8163,
      "EA": 8164,
      "otal": 8165,
      "ulpt": 8166,
      "Ġextension": 8167,
      "Ġrestric": 8168,
      "Ġoldest": 8169,
      "Ġplanting": 8170,
      "Ġ1979": 8171,
      "Ġ1940": 8172,
      "Ġaimed": 8173,
      "ĠZealand": 8174,
      "wa": 8175,
      "ouri": 8176,
      "Ġschedule": 8177,
      "Ġamazing": 8178,
      "icking": 8179,
      "Ġreporting": 8180,
      "Ġdriver": 8181,
      "ĠDivision": 8182,
      "ĠSunday": 8183,
      "oz": 8184,
      "Ġconvey": 8185,
      "pling": 8186,
      "Ġincident": 8187,
      "Ġunp": 8188,
      "Ġorders": 8189,
      "ugg": 8190,
      "Ġgent": 8191,
      "ĠCA": 8192,
      "Ġaged": 8193,
      "Ġsimultane": 8194,
      "Ġapparently": 8195,
      "IF": 8196,
      "box": 8197,
      "ohyd": 8198,
      "Ġmathematical": 8199,
      "ĠElizabeth": 8200,
      "istant": 8201,
      "ĠOk": 8202,
      "Ġadverse": 8203,
      "Ġmeals": 8204,
      "Ġobjectives": 8205,
      "Ġidentifying": 8206,
      "Ġcommitment": 8207,
      "ĠRemember": 8208,
      "Ġthermal": 8209,
      "Ġmammals": 8210,
      "Ġton": 8211,
      "igate": 8212,
      "ĠWay": 8213,
      "Ġbless": 8214,
      "azon": 8215,
      "Ġpropag": 8216,
      "Ġchannel": 8217,
      "fast": 8218,
      "uum": 8219,
      "Ġ^": 8220,
      "Ġol": 8221,
      "Ġcash": 8222,
      "oto": 8223,
      "ĠDoc": 8224,
      "acent": 8225,
      "Ġranging": 8226,
      "acts": 8227,
      "Ġecological": 8228,
      "Ġordinary": 8229,
      "Ġvillages": 8230,
      "Ġperceived": 8231,
      "rection": 8232,
      "ĠWed": 8233,
      "Ġcomprom": 8234,
      "Ġquiet": 8235,
      "Ġracial": 8236,
      "bean": 8237,
      "Ġ~": 8238,
      "Ġcraft": 8239,
      "ĠCapt": 8240,
      "Ġsupplements": 8241,
      "cking": 8242,
      "Ġexisted": 8243,
      "Ġdominant": 8244,
      "ĠConference": 8245,
      "idal": 8246,
      "Ġgenome": 8247,
      "Ġdirections": 8248,
      "ĠFacebook": 8249,
      "lines": 8250,
      "Ġtables": 8251,
      "Ġhidden": 8252,
      "Ġexhaust": 8253,
      "ĠFred": 8254,
      "Ġcancers": 8255,
      "Ġimaging": 8256,
      "ailed": 8257,
      "ĠContin": 8258,
      "Ġinnovative": 8259,
      "Ġdeficiency": 8260,
      "irth": 8261,
      "Ġ120": 8262,
      "issipp": 8263,
      "Ġattach": 8264,
      "Ġinsight": 8265,
      "ĠParliament": 8266,
      "Ġlungs": 8267,
      "Ġduty": 8268,
      "rical": 8269,
      "Ġsizes": 8270,
      "Ġfuels": 8271,
      "olt": 8272,
      "uther": 8273,
      "otype": 8274,
      "Ġsubstit": 8275,
      "Ġembra": 8276,
      "Ġbiodiversity": 8277,
      "ĠTenn": 8278,
      "urches": 8279,
      "Ġsup": 8280,
      "Ġrestrictions": 8281,
      "OD": 8282,
      "ician": 8283,
      "ĠCard": 8284,
      "Ġhealing": 8285,
      "ĠGar": 8286,
      "Ġradical": 8287,
      "Ġbacterial": 8288,
      "Ġmyst": 8289,
      "Ġpanels": 8290,
      "On": 8291,
      "Ġduration": 8292,
      "Ġbears": 8293,
      "ruit": 8294,
      "Ġresc": 8295,
      "ovascular": 8296,
      "Ġowned": 8297,
      "Ġdraft": 8298,
      "Ad": 8299,
      "sis": 8300,
      "Ġasc": 8301,
      "ĠHum": 8302,
      "Ġinterf": 8303,
      "Ġguess": 8304,
      "ĠDaniel": 8305,
      "Ġpy": 8306,
      "agan": 8307,
      "ĠVar": 8308,
      "Ġaccord": 8309,
      "ĠReading": 8310,
      "Ġeliminate": 8311,
      "Ġcorresponding": 8312,
      "una": 8313,
      "Ġprobability": 8314,
      "Ġremarkable": 8315,
      "Ġinhabitants": 8316,
      "ceans": 8317,
      "ĠPoly": 8318,
      "ĠHor": 8319,
      "ĠDid": 8320,
      "ema": 8321,
      "Ġdistant": 8322,
      "Ġspacecraft": 8323,
      "Ġdropped": 8324,
      "cient": 8325,
      "ĠFar": 8326,
      "Ġsevent": 8327,
      "Ġsched": 8328,
      "Ġgirl": 8329,
      "Ġphotographs": 8330,
      "Ġpesticides": 8331,
      "Ġdress": 8332,
      "ĠMess": 8333,
      "Ġflash": 8334,
      "Ġheritage": 8335,
      "ĠChristmas": 8336,
      "Ġminds": 8337,
      "Ġfatty": 8338,
      "Ġevolutionary": 8339,
      "ĠBetween": 8340,
      "AA": 8341,
      "TH": 8342,
      "oys": 8343,
      "Ġtong": 8344,
      "Ġshore": 8345,
      "Ġabstract": 8346,
      "Ġmanual": 8347,
      "ĠStan": 8348,
      "ĠStill": 8349,
      "Ġampl": 8350,
      "century": 8351,
      "Ġeducators": 8352,
      "Ġexperiencing": 8353,
      "health": 8354,
      "ĠKids": 8355,
      "ĠHead": 8356,
      "ĠImp": 8357,
      "ĠOften": 8358,
      "Ġcontributions": 8359,
      "Ġuniversities": 8360,
      "kind": 8361,
      "Ġcotton": 8362,
      "Ġwat": 8363,
      "rod": 8364,
      "Ġenables": 8365,
      "Ġcurve": 8366,
      "Ġanticip": 8367,
      "Ġfaces": 8368,
      "Ġadapted": 8369,
      "\")": 8370,
      "Ġtomat": 8371,
      "Ġhat": 8372,
      "ĠCall": 8373,
      "ĠLos": 8374,
      "aka": 8375,
      "Ġparad": 8376,
      "Ġannually": 8377,
      "Ġunlikely": 8378,
      "ĠWikipedia": 8379,
      "EF": 8380,
      "Ġlymph": 8381,
      "ĠGh": 8382,
      "ĠJul": 8383,
      "Ġevening": 8384,
      "Ġzinc": 8385,
      "words": 8386,
      "Ġtorn": 8387,
      "ener": 8388,
      "quar": 8389,
      "Ġentering": 8390,
      "Ġdetermining": 8391,
      "Ġmedicines": 8392,
      "tic": 8393,
      "Ã¢": 8394,
      "Ġom": 8395,
      "Ġstability": 8396,
      "Ġstrengthen": 8397,
      "mm": 8398,
      "enger": 8399,
      "utation": 8400,
      "ĠBM": 8401,
      "mentation": 8402,
      "ĠGiven": 8403,
      "Ġinstant": 8404,
      "Ġoccas": 8405,
      "Ġcoron": 8406,
      "Ġfunctioning": 8407,
      "ĠGener": 8408,
      "Ġrespiratory": 8409,
      "door": 8410,
      "mond": 8411,
      "ashes": 8412,
      "riend": 8413,
      "aren": 8414,
      "plete": 8415,
      "Ġkeeps": 8416,
      "Ġcreatures": 8417,
      "Ġcontents": 8418,
      "Ġ38": 8419,
      "Ġinspir": 8420,
      "Ġforecast": 8421,
      "Ġgrounds": 8422,
      "Ġtelling": 8423,
      "Ġlicens": 8424,
      "Ġstreets": 8425,
      "iations": 8426,
      "Ġhoney": 8427,
      "ĠRight": 8428,
      "eping": 8429,
      "Ġscores": 8430,
      "Ġentertain": 8431,
      "ĠBiology": 8432,
      "ĠAlzheimer": 8433,
      "raham": 8434,
      "Ġsubsc": 8435,
      "Ġtransmit": 8436,
      "ĠMedia": 8437,
      "Ġkingdom": 8438,
      "Ġstreams": 8439,
      "Ġpreferred": 8440,
      "ĠKorea": 8441,
      "issippi": 8442,
      "67": 8443,
      "icing": 8444,
      "ĠMi": 8445,
      "ĠMaterial": 8446,
      "Ġadvis": 8447,
      "Ġconsume": 8448,
      "ĠIncre": 8449,
      "ĠGreece": 8450,
      "ĠArea": 8451,
      "Ġtill": 8452,
      "Ġdairy": 8453,
      "lymp": 8454,
      "ĠCirc": 8455,
      "unc": 8456,
      "Ġ1920": 8457,
      "erty": 8458,
      "Ġaffecting": 8459,
      "Ġexciting": 8460,
      "Ġcord": 8461,
      "ĠID": 8462,
      "Ġpromise": 8463,
      "ĠConsider": 8464,
      "Ġmothers": 8465,
      "But": 8466,
      "gments": 8467,
      "Ġtor": 8468,
      "Ġsulf": 8469,
      "Ġbrows": 8470,
      "Ġdies": 8471,
      "ĠKent": 8472,
      "Ġmovie": 8473,
      "Ġachievement": 8474,
      "ĠMuch": 8475,
      "ĠVietnam": 8476,
      "ĠCop": 8477,
      "Ġunem": 8478,
      "AB": 8479,
      "yer": 8480,
      "leton": 8481,
      "Ġreverse": 8482,
      "igue": 8483,
      "iva": 8484,
      "Ġnotion": 8485,
      "aret": 8486,
      "Ġregister": 8487,
      "ymes": 8488,
      "warf": 8489,
      "Ġnarrative": 8490,
      "Ġhabitats": 8491,
      "Ġconverted": 8492,
      "ĠStandard": 8493,
      "ĠHunt": 8494,
      "Ġentit": 8495,
      "Ġlights": 8496,
      "Ġperforming": 8497,
      "ĠPrince": 8498,
      "Ġmagnitude": 8499,
      "Ġsubsid": 8500,
      "vation": 8501,
      "Ġspoke": 8502,
      "Ġcontinuing": 8503,
      "Ġinvestigate": 8504,
      "ĠFull": 8505,
      "Ġphysically": 8506,
      "Ġdegrad": 8507,
      "ĠSmall": 8508,
      "98": 8509,
      "top": 8510,
      "Ġfing": 8511,
      "Ġfet": 8512,
      "ĠPut": 8513,
      "Ġhardware": 8514,
      "Ġdietary": 8515,
      "53": 8516,
      "ali": 8517,
      "ĠCode": 8518,
      "ĠMur": 8519,
      "mented": 8520,
      "ĠDrug": 8521,
      "Ġpermit": 8522,
      "Ġapplying": 8523,
      "Ġscope": 8524,
      "Ġprofit": 8525,
      "borne": 8526,
      "OP": 8527,
      "atter": 8528,
      "asy": 8529,
      "oli": 8530,
      "umer": 8531,
      "Ġshoot": 8532,
      "ĠOS": 8533,
      "Ġherb": 8534,
      "Ġrefused": 8535,
      "2012": 8536,
      "Ġaddresses": 8537,
      "Ġcustomer": 8538,
      "52": 8539,
      "OC": 8540,
      "tw": 8541,
      "Ġtack": 8542,
      "Ġassets": 8543,
      "Ġuncle": 8544,
      "rible": 8545,
      "Ġauthent": 8546,
      "Ġpasses": 8547,
      "ĠWithin": 8548,
      "ĠMissouri": 8549,
      "Ġhormones": 8550,
      "Ġpairs": 8551,
      "ĠIns": 8552,
      "Ġviolent": 8553,
      "ĠMuslims": 8554,
      "Ġhypothesis": 8555,
      "%,": 8556,
      "Ġdevast": 8557,
      "Ġprotective": 8558,
      "ersonal": 8559,
      "Ġqualities": 8560,
      ".]": 8561,
      "ĠHindu": 8562,
      "agle": 8563,
      "Ġinfants": 8564,
      "Ġpersonality": 8565,
      "Ġoblig": 8566,
      "Se": 8567,
      "Ġfought": 8568,
      "ĠMond": 8569,
      "Ġloop": 8570,
      "Ġassociate": 8571,
      "Ġconvert": 8572,
      "otherapy": 8573,
      "har": 8574,
      "pdf": 8575,
      "Ġreign": 8576,
      "izers": 8577,
      "Ġfocusing": 8578,
      "ĠTestament": 8579,
      "rong": 8580,
      "ĠBuilding": 8581,
      "uscript": 8582,
      "ĠNear": 8583,
      "Ġfunded": 8584,
      "Ġliterally": 8585,
      "Ġemerging": 8586,
      "ython": 8587,
      "63": 8588,
      "ati": 8589,
      "rency": 8590,
      "Ġassert": 8591,
      "Ġwatching": 8592,
      "Ġrevenue": 8593,
      "wan": 8594,
      "ĠFrid": 8595,
      "ĠAnalysis": 8596,
      "claim": 8597,
      "Ġproductivity": 8598,
      "Ġcontainer": 8599,
      "zyme": 8600,
      "ga": 8601,
      "Ġconclus": 8602,
      "ĠNO": 8603,
      "agen": 8604,
      "awn": 8605,
      "RC": 8606,
      "oons": 8607,
      "ipher": 8608,
      "ĠSelect": 8609,
      "ĠBlue": 8610,
      "2008": 8611,
      "Ġdeeply": 8612,
      "Ġpsychology": 8613,
      "Ġsaved": 8614,
      "Ġcomfortable": 8615,
      "aus": 8616,
      "rint": 8617,
      "ori": 8618,
      "adelph": 8619,
      "sm": 8620,
      "Ġsect": 8621,
      "ifer": 8622,
      "Ġsport": 8623,
      "Ġparticle": 8624,
      "Ġargued": 8625,
      "Ġheaven": 8626,
      "Ġcow": 8627,
      "ouds": 8628,
      "Ġdense": 8629,
      "ĠMove": 8630,
      "ĠMax": 8631,
      "ĠOlymp": 8632,
      "Ġmanaging": 8633,
      "ĠÂ£": 8634,
      "ĠMinistry": 8635,
      "Ġnutrient": 8636,
      "Ġassumed": 8637,
      "ĠBusiness": 8638,
      "rem": 8639,
      "ĠCreek": 8640,
      "ĠRNA": 8641,
      "aints": 8642,
      "endar": 8643,
      "Ġexploration": 8644,
      "Ġexplicit": 8645,
      "Ġlistening": 8646,
      "Ġlabour": 8647,
      "Ġcouncil": 8648,
      "Ġjudgment": 8649,
      "Ġrobot": 8650,
      "Ġmerch": 8651,
      "Ġopinions": 8652,
      "ĠMississippi": 8653,
      "Ġgods": 8654,
      "ĠScotland": 8655,
      "Ġaccompanied": 8656,
      "58": 8657,
      "def": 8658,
      "zes": 8659,
      "Ġstood": 8660,
      "ifice": 8661,
      "ourse": 8662,
      "Ġsculpt": 8663,
      "Ġintroduce": 8664,
      "Ġvirtually": 8665,
      "icts": 8666,
      "Ġchair": 8667,
      "Ġmanager": 8668,
      "issance": 8669,
      "Ġwaiting": 8670,
      "Ġenormous": 8671,
      "Ind": 8672,
      "Ġvel": 8673,
      "Ġdent": 8674,
      "raq": 8675,
      "Ġreadily": 8676,
      "ĠBeing": 8677,
      "Ġcyber": 8678,
      "Ġarrival": 8679,
      "Ġneurons": 8680,
      "Ġfo": 8681,
      "Ġinch": 8682,
      "Ġstyles": 8683,
      "ĠMath": 8684,
      "Ġhaven": 8685,
      "ĠGre": 8686,
      "Ġcirculation": 8687,
      "ĠHeritage": 8688,
      "Ġgraduate": 8689,
      "Ġcelebrated": 8690,
      "EG": 8691,
      "Ġsister": 8692,
      "ĠAI": 8693,
      "olk": 8694,
      "ĠCorps": 8695,
      "Ġweakness": 8696,
      "ĠHelp": 8697,
      "BI": 8698,
      "Ġcab": 8699,
      "Ġshaped": 8700,
      "Ġrac": 8701,
      "Ġpersonnel": 8702,
      "Ġlearners": 8703,
      "adelphia": 8704,
      "Ġreaches": 8705,
      "Ġnom": 8706,
      "Ġgerm": 8707,
      "terior": 8708,
      "oded": 8709,
      "ĠNob": 8710,
      "Ġchose": 8711,
      "text": 8712,
      "Ġcolonial": 8713,
      "ĠNegro": 8714,
      "hemistry": 8715,
      "Ġrepresentative": 8716,
      "Ġwebsites": 8717,
      "rix": 8718,
      "ologically": 8719,
      "Ġrecording": 8720,
      "amps": 8721,
      "ĠMcC": 8722,
      "Ġantibiotics": 8723,
      "Ġbeds": 8724,
      "ĠSaint": 8725,
      "ifted": 8726,
      "mentia": 8727,
      "thritis": 8728,
      "ĠThird": 8729,
      "Ġindirect": 8730,
      "Ġdiarr": 8731,
      "2009": 8732,
      "Ġbrush": 8733,
      "Ġcolonies": 8734,
      "Ġsymbols": 8735,
      "Ġhepatitis": 8736,
      "Ġbull": 8737,
      "aning": 8738,
      "Ġsuit": 8739,
      "ĠFig": 8740,
      "Ġnoticed": 8741,
      "Ġclassical": 8742,
      "Ġhandling": 8743,
      "Ġbreaking": 8744,
      "Ġdefinitely": 8745,
      "Ġhorizont": 8746,
      "asm": 8747,
      "aware": 8748,
      "forest": 8749,
      "Ġinstances": 8750,
      "Ġdescend": 8751,
      "Ġburied": 8752,
      "Ġspoken": 8753,
      "Ġhospitals": 8754,
      "onents": 8755,
      "isd": 8756,
      "Ġfan": 8757,
      "Ġmail": 8758,
      "Ġmature": 8759,
      "Ġweigh": 8760,
      "Ġsurge": 8761,
      "Ġsheep": 8762,
      "Ġutility": 8763,
      "Ġvolunteers": 8764,
      "ĠMarc": 8765,
      "Ġclassic": 8766,
      "Ġemotion": 8767,
      "Ġinvolvement": 8768,
      "Ġneutral": 8769,
      "ket": 8770,
      "itory": 8771,
      "ĠSqu": 8772,
      "Ġassemb": 8773,
      "Ġamino": 8774,
      "ĠAlaska": 8775,
      "Ġidentical": 8776,
      "ĠHarvard": 8777,
      "Ġoccupied": 8778,
      "Ġholiday": 8779,
      "atial": 8780,
      "Ġbare": 8781,
      "Ġdiffer": 8782,
      "Ġregime": 8783,
      "ĠResp": 8784,
      "Ġsensitivity": 8785,
      "Ġvictory": 8786,
      "Ġfacilitate": 8787,
      "OM": 8788,
      "bury": 8789,
      "Ġcul": 8790,
      "Ġvot": 8791,
      "Ġrelie": 8792,
      "Ġcave": 8793,
      "Ġbehavioral": 8794,
      "Ġlifetime": 8795,
      "Ġreflected": 8796,
      "61": 8797,
      "disc": 8798,
      "roud": 8799,
      "ropol": 8800,
      "nedy": 8801,
      "Ġscenario": 8802,
      "Ġpandemic": 8803,
      "ĠEmer": 8804,
      "Ġwearing": 8805,
      "Ġthemes": 8806,
      "Ġmarg": 8807,
      "Ġloose": 8808,
      "Ġcalculated": 8809,
      "Ġtip": 8810,
      "2010": 8811,
      "Ġsentences": 8812,
      "Ġanalyze": 8813,
      "ĠRelig": 8814,
      "ioxid": 8815,
      "Ġwonderful": 8816,
      "cut": 8817,
      "ois": 8818,
      "ĠCook": 8819,
      "Ġreef": 8820,
      "ĠRen": 8821,
      "Ġraising": 8822,
      "Ġ42": 8823,
      "Ġrequirement": 8824,
      "ĠAbraham": 8825,
      "ĠImpro": 8826,
      "Ġarmed": 8827,
      "Ġecosystems": 8828,
      ",'": 8829,
      "Ġ1000": 8830,
      "ĠOcc": 8831,
      "Ġclothes": 8832,
      "ricane": 8833,
      "onin": 8834,
      "rait": 8835,
      "Ġstake": 8836,
      "ĠBased": 8837,
      "ĠHard": 8838,
      "emies": 8839,
      "ighth": 8840,
      "Ġanalog": 8841,
      "68": 8842,
      "Ġsending": 8843,
      "irms": 8844,
      "opath": 8845,
      "opathy": 8846,
      "ĠLuc": 8847,
      "ĠAndrew": 8848,
      "Ġ1989": 8849,
      "ĠConnect": 8850,
      "Ġdisability": 8851,
      "apor": 8852,
      "Ġpriority": 8853,
      "requ": 8854,
      "ĠMP": 8855,
      "ĠHim": 8856,
      "Ġabilities": 8857,
      "Ġprey": 8858,
      "Ġbuff": 8859,
      "Ġlock": 8860,
      "Ġcampus": 8861,
      "Ġpenet": 8862,
      "Ġminority": 8863,
      "Gen": 8864,
      "made": 8865,
      "vals": 8866,
      "Ġmig": 8867,
      "ĠHem": 8868,
      "allow": 8869,
      "Ġsocieties": 8870,
      "Ġdiscussions": 8871,
      "Ġcuts": 8872,
      "Ġarguments": 8873,
      "Ġlogic": 8874,
      "non": 8875,
      "Ġsad": 8876,
      "Ġpion": 8877,
      "Ġmouse": 8878,
      "ĠMot": 8879,
      "ĠRest": 8880,
      "Ġcolony": 8881,
      "Ġcoat": 8882,
      "Ġdistinction": 8883,
      "Ġcapabilities": 8884,
      "Ġconsumed": 8885,
      "ĠTrade": 8886,
      "Ġsustainability": 8887,
      "Ġmanifest": 8888,
      "See": 8889,
      "Ġthirty": 8890,
      "Ġcouldn": 8891,
      "ĠProcess": 8892,
      "Ġmyself": 8893,
      "Ġenthus": 8894,
      "Ġgardens": 8895,
      "ĠPhiladelphia": 8896,
      "ĠKennedy": 8897,
      "92": 8898,
      "Don": 8899,
      "green": 8900,
      "asma": 8901,
      "ĠFDA": 8902,
      "Ġunderground": 8903,
      "ĠArts": 8904,
      "Ġstrange": 8905,
      "ups": 8906,
      "Ġrestore": 8907,
      "Ġversus": 8908,
      "Ġdischarge": 8909,
      "night": 8910,
      "ĠField": 8911,
      "ĠStrate": 8912,
      "Ġattribut": 8913,
      "Ġdifferently": 8914,
      "Ġoperated": 8915,
      "Ġpainted": 8916,
      "Ġquantum": 8917,
      "outheast": 8918,
      "Ġcompost": 8919,
      "Ġbutton": 8920,
      "Ġpreserved": 8921,
      "ĠIsa": 8922,
      "Ġclassified": 8923,
      "ĠPlace": 8924,
      "ĠExamples": 8925,
      "lights": 8926,
      "acles": 8927,
      "unct": 8928,
      "Ġresil": 8929,
      "Ġinvention": 8930,
      "Ġparagraph": 8931,
      "Ġsummary": 8932,
      "Ġfatal": 8933,
      "Ġoxid": 8934,
      "Ġcough": 8935,
      "rose": 8936,
      "ĠCrit": 8937,
      "Ġspons": 8938,
      "ĠJava": 8939,
      "Ġcontinent": 8940,
      "Ġearthquake": 8941,
      "ĠpH": 8942,
      "Ġ250": 8943,
      "ĠStation": 8944,
      "Ġreturns": 8945,
      "Ġprivile": 8946,
      "ogenic": 8947,
      "Ġprisoners": 8948,
      "Go": 8949,
      "To": 8950,
      "Ã¤": 8951,
      "anol": 8952,
      "Ġease": 8953,
      "ĠCost": 8954,
      "ĠFish": 8955,
      "Ġblank": 8956,
      "ĠIndigenous": 8957,
      "Ġorigins": 8958,
      "Ġplanted": 8959,
      "Ġ1986": 8960,
      "Ġpollut": 8961,
      "Ġmalaria": 8962,
      "Ġregistered": 8963,
      "Ġmercury": 8964,
      "ĠTit": 8965,
      "ĠMA": 8966,
      "Ġunn": 8967,
      "Ġvaccination": 8968,
      "Ġreveals": 8969,
      "world": 8970,
      "ĠStephen": 8971,
      "ĠDarwin": 8972,
      "Ġirrigation": 8973,
      "51": 8974,
      "western": 8975,
      "Ġassembly": 8976,
      "ĠRail": 8977,
      "Ġproducers": 8978,
      "ĠBehav": 8979,
      "Ġseriously": 8980,
      "Ġsodium": 8981,
      "Ġoutbreak": 8982,
      "Ġfrog": 8983,
      "urrent": 8984,
      "thur": 8985,
      "Ġsmell": 8986,
      "Ġpromoting": 8987,
      "irable": 8988,
      "Ġtransferred": 8989,
      "Ġhouseholds": 8990,
      "fe": 8991,
      "Ġsessions": 8992,
      "Ġgate": 8993,
      "Ġgast": 8994,
      "Ġrecre": 8995,
      "Ġdefault": 8996,
      "Ġtargeted": 8997,
      "ĠChristianity": 8998,
      "ĠMaryland": 8999,
      "usalem": 9000,
      "cho": 9001,
      "ĠMajor": 9002,
      "ĠFer": 9003,
      "Ġprovision": 9004,
      "Ġcheap": 9005,
      "iblical": 9006,
      "ĠMicrosoft": 9007,
      "bul": 9008,
      "Ġsees": 9009,
      "Ġpassion": 9010,
      "Ġtrem": 9011,
      "Ġcollections": 9012,
      "regular": 9013,
      "Ġexpertise": 9014,
      "ĠOrigin": 9015,
      "ometer": 9016,
      "ials": 9017,
      "athan": 9018,
      "ĠColon": 9019,
      "Ġdebris": 9020,
      "ĠDigital": 9021,
      "ĠSecretary": 9022,
      "57": 9023,
      "vy": 9024,
      "Ġcas": 9025,
      "Ġmigration": 9026,
      "Ġintention": 9027,
      "Ġremoving": 9028,
      "ĠRoad": 9029,
      "Ġaggressive": 9030,
      "Ġdistinguish": 9031,
      "ĠFord": 9032,
      "ĠVe": 9033,
      "Ġgrades": 9034,
      "ĠScript": 9035,
      "ĠPhysical": 9036,
      "Ġsuddenly": 9037,
      "!âĢĿ": 9038,
      "uits": 9039,
      "ĠIraq": 9040,
      "uled": 9041,
      "Ġvig": 9042,
      "ubs": 9043,
      "Ġacting": 9044,
      "Ġvisits": 9045,
      "Ġcontrolling": 9046,
      "Ġatmospheric": 9047,
      "Ġlecture": 9048,
      "HS": 9049,
      "Ġfires": 9050,
      "opher": 9051,
      "Ġspots": 9052,
      "ĠUnt": 9053,
      "Ġtrace": 9054,
      "teb": 9055,
      "Ġequality": 9056,
      "Ġmetals": 9057,
      "Ġposted": 9058,
      "Ġharder": 9059,
      "ĠBlood": 9060,
      "quiry": 9061,
      "ĠSus": 9062,
      "ĠCP": 9063,
      "elly": 9064,
      "ivest": 9065,
      "rene": 9066,
      "Ġurine": 9067,
      "Ġpaying": 9068,
      "Ġwars": 9069,
      "Ġalarm": 9070,
      "Ġincent": 9071,
      "Ġcooperation": 9072,
      "Ġpayment": 9073,
      "Ġsequences": 9074,
      "Ġflexible": 9075,
      "Â®": 9076,
      "Ġ`": 9077,
      "erts": 9078,
      "orters": 9079,
      "child": 9080,
      "advant": 9081,
      "aved": 9082,
      "Ġreflection": 9083,
      "Ġrepresenting": 9084,
      "Ġethical": 9085,
      "Ġmagazine": 9086,
      "Ġtribe": 9087,
      "uity": 9088,
      "Ġgly": 9089,
      "Ġstones": 9090,
      "ĠJim": 9091,
      "Ġclay": 9092,
      "Ġactively": 9093,
      "Ġ43": 9094,
      "Ġtempor": 9095,
      "III": 9096,
      "Ġconversion": 9097,
      "Ġbee": 9098,
      "ĠJr": 9099,
      "Ġspecified": 9100,
      "Ġgrains": 9101,
      "Ġestate": 9102,
      "shaped": 9103,
      "Ġdrivers": 9104,
      "Ġhopes": 9105,
      "62": 9106,
      "Ġtab": 9107,
      "atal": 9108,
      "Ġsoph": 9109,
      "Ġcensus": 9110,
      "Ġwisdom": 9111,
      "Ġgathered": 9112,
      "usive": 9113,
      "ĠOil": 9114,
      "Ġ600": 9115,
      "Ġsavings": 9116,
      "Ġsatisfact": 9117,
      "ĠHop": 9118,
      "anted": 9119,
      "insula": 9120,
      "Ġ1988": 9121,
      "orig": 9122,
      "Ġtom": 9123,
      "Ġlakes": 9124,
      "ĠEll": 9125,
      "ĠJacks": 9126,
      "54": 9127,
      "run": 9128,
      "duction": 9129,
      "Ġincidence": 9130,
      "Ġpartly": 9131,
      "ĠShort": 9132,
      "Ġwooden": 9133,
      "ught": 9134,
      "ĠAngeles": 9135,
      "Ġfur": 9136,
      "aying": 9137,
      "thod": 9138,
      "ĠOffic": 9139,
      "Ġsciences": 9140,
      "Ġeverywhere": 9141,
      "Ġadvances": 9142,
      "Ġencounter": 9143,
      "apped": 9144,
      "ĠAmazon": 9145,
      "position": 9146,
      "Ġprecip": 9147,
      "ĠWriting": 9148,
      "chain": 9149,
      "ĠBeg": 9150,
      "ĠHit": 9151,
      "ranean": 9152,
      "ĠNevertheless": 9153,
      "Ġvocabulary": 9154,
      "Ġdying": 9155,
      "ĠAh": 9156,
      "ĠMoses": 9157,
      "berry": 9158,
      "ATION": 9159,
      "Ġquantities": 9160,
      "specific": 9161,
      "Ġenforcement": 9162,
      "No": 9163,
      "UL": 9164,
      "ĠMach": 9165,
      "Ġrestaur": 9166,
      "Ġengineer": 9167,
      "Ġreserves": 9168,
      "Ġsacred": 9169,
      "Ġwage": 9170,
      "ĠLi": 9171,
      "ologic": 9172,
      "Ġsoils": 9173,
      "Ġverb": 9174,
      "ĠPrint": 9175,
      "Ġdocumented": 9176,
      "ĠPhilipp": 9177,
[...]
